{
  "version": "1.0",
  "truncation": null,
  "padding": null,
  "added_tokens": [
    {
      "id": 0,
      "content": "<unk>",
      "single_word": false,
      "lstrip": false,
      "rstrip": false,
      "normalized": false,
      "special": true
    }
  ],
  "normalizer": null,
  "pre_tokenizer": {
    "type": "Whitespace"
  },
  "post_processor": null,
  "decoder": null,
  "model": {
    "type": "BPE",
    "dropout": null,
    "unk_token": null,
    "continuing_subword_prefix": null,
    "end_of_word_suffix": null,
    "fuse_unk": false,
    "byte_fallback": false,
    "ignore_merges": false,
    "vocab": {
      "<unk>": 0,
      "!": 1,
      "\"": 2,
      "$": 3,
      "%": 4,
      "&": 5,
      "'": 6,
      "(": 7,
      ")": 8,
      ",": 9,
      "-": 10,
      ".": 11,
      "/": 12,
      "0": 13,
      "1": 14,
      "2": 15,
      "3": 16,
      "4": 17,
      "5": 18,
      "6": 19,
      "7": 20,
      "8": 21,
      "9": 22,
      ":": 23,
      ";": 24,
      "=": 25,
      "?": 26,
      "A": 27,
      "B": 28,
      "C": 29,
      "D": 30,
      "E": 31,
      "F": 32,
      "G": 33,
      "H": 34,
      "I": 35,
      "J": 36,
      "K": 37,
      "L": 38,
      "M": 39,
      "N": 40,
      "O": 41,
      "P": 42,
      "Q": 43,
      "R": 44,
      "S": 45,
      "T": 46,
      "U": 47,
      "V": 48,
      "W": 49,
      "X": 50,
      "Y": 51,
      "Z": 52,
      "a": 53,
      "b": 54,
      "c": 55,
      "d": 56,
      "e": 57,
      "f": 58,
      "g": 59,
      "h": 60,
      "i": 61,
      "j": 62,
      "k": 63,
      "l": 64,
      "m": 65,
      "n": 66,
      "o": 67,
      "p": 68,
      "q": 69,
      "r": 70,
      "s": 71,
      "t": 72,
      "u": 73,
      "v": 74,
      "w": 75,
      "x": 76,
      "y": 77,
      "z": 78,
      "~": 79,
      "£": 80,
      "¥": 81,
      "—": 82,
      "‘": 83,
      "′": 84,
      "。": 85,
      "er": 86,
      "on": 87,
      "ers": 88,
      "erson": 89,
      "Person": 90,
      "th": 91,
      "ou": 92,
      "in": 93,
      "an": 94,
      "you": 95,
      "re": 96,
      "at": 97,
      "the": 98,
      "to": 99,
      "ll": 100,
      "it": 101,
      "is": 102,
      "me": 103,
      "or": 104,
      "es": 105,
      "ing": 106,
      "ve": 107,
      "se": 108,
      "le": 109,
      "st": 110,
      "ke": 111,
      "ha": 112,
      "ow": 113,
      "ar": 114,
      "he": 115,
      "ere": 116,
      "oo": 117,
      "and": 118,
      "hat": 119,
      "of": 120,
      "li": 121,
      "ay": 122,
      "for": 123,
      "ch": 124,
      "en": 125,
      "et": 126,
      "have": 127,
      "ld": 128,
      "be": 129,
      "do": 130,
      "gh": 131,
      "al": 132,
      "so": 133,
      "ut": 134,
      "are": 135,
      "ri": 136,
      "wi": 137,
      "ce": 138,
      "we": 139,
      "all": 140,
      "ould": 141,
      "as": 142,
      "ot": 143,
      "one": 144,
      "It": 145,
      "ta": 146,
      "ght": 147,
      "like": 148,
      "ed": 149,
      "co": 150,
      "can": 151,
      "ver": 152,
      "ir": 153,
      "out": 154,
      "ad": 155,
      "that": 156,
      "nd": 157,
      "ne": 158,
      "Yes": 159,
      "What": 160,
      "Th": 161,
      "ple": 162,
      "your": 163,
      "ti": 164,
      "this": 165,
      "ab": 166,
      "ro": 167,
      "We": 168,
      "id": 169,
      "sh": 170,
      "ood": 171,
      "ase": 172,
      "ck": 173,
      "You": 174,
      "ant": 175,
      "ry": 176,
      "go": 177,
      "some": 178,
      "The": 179,
      "How": 180,
      "ink": 181,
      "now": 182,
      "ter": 183,
      "am": 184,
      "su": 185,
      "ly": 186,
      "mu": 187,
      "here": 188,
      "mo": 189,
      "my": 190,
      "get": 191,
      "with": 192,
      "bu": 193,
      "ra": 194,
      "ook": 195,
      "any": 196,
      "thing": 197,
      "about": 198,
      "nt": 199,
      "please": 200,
      "ank": 201,
      "there": 202,
      "will": 203,
      "want": 204,
      "No": 205,
      "our": 206,
      "very": 207,
      "think": 208,
      "pe": 209,
      "Do": 210,
      "lo": 211,
      "ge": 212,
      "right": 213,
      "if": 214,
      "ally": 215,
      "don": 216,
      "take": 217,
      "hi": 218,
      "That": 219,
      "not": 220,
      "much": 221,
      "ur": 222,
      "ind": 223,
      "ust": 224,
      "si": 225,
      "de": 226,
      "day": 227,
      "ea": 228,
      "ure": 229,
      "good": 230,
      "but": 231,
      "Thank": 232,
      "ma": 233,
      "would": 234,
      "know": 235,
      "fe": 236,
      "see": 237,
      "look": 238,
      "ble": 239,
      "ther": 240,
      "ex": 241,
      "OK": 242,
      "Oh": 243,
      "ent": 244,
      "la": 245,
      "time": 246,
      "ine": 247,
      "ic": 248,
      "Can": 249,
      "ight": 250,
      "ap": 251,
      "what": 252,
      "up": 253,
      "use": 254,
      "way": 255,
      "qu": 256,
      "Well": 257,
      "just": 258,
      "ul": 259,
      "ice": 260,
      "sa": 261,
      "too": 262,
      "ion": 263,
      "ho": 264,
      "est": 265,
      "il": 266,
      "el": 267,
      "ong": 268,
      "pro": 269,
      "un": 270,
      "But": 271,
      "ba": 272,
      "need": 273,
      "Is": 274,
      "hel": 275,
      "ound": 276,
      "orry": 277,
      "Here": 278,
      "ct": 279,
      "com": 280,
      "ive": 281,
      "art": 282,
      "was": 283,
      "come": 284,
      "ill": 285,
      "af": 286,
      "sir": 287,
      "po": 288,
      "ment": 289,
      "they": 290,
      "ite": 291,
      "buy": 292,
      "sto": 293,
      "ci": 294,
      "help": 295,
      "che": 296,
      "car": 297,
      "ell": 298,
      "um": 299,
      "Let": 300,
      "res": 301,
      "should": 302,
      "no": 303,
      "pen": 304,
      "roo": 305,
      "Sure": 306,
      "more": 307,
      "ven": 308,
      "con": 309,
      "hen": 310,
      "fa": 311,
      "And": 312,
      "pa": 313,
      "room": 314,
      "wor": 315,
      "di": 316,
      "try": 317,
      "..": 318,
      "00": 319,
      "really": 320,
      "ation": 321,
      "This": 322,
      "ate": 323,
      "by": 324,
      "pl": 325,
      "them": 326,
      "per": 327,
      "ous": 328,
      "wo": 329,
      "ten": 330,
      "ess": 331,
      "own": 332,
      "May": 333,
      "der": 334,
      "going": 335,
      "red": 336,
      "hy": 337,
      "uan": 338,
      "back": 339,
      "rom": 340,
      "ga": 341,
      "how": 342,
      "off": 343,
      "bo": 344,
      "Would": 345,
      "got": 346,
      "tle": 347,
      "They": 348,
      "over": 349,
      "Ch": 350,
      "from": 351,
      "ber": 352,
      "ty": 353,
      "br": 354,
      "spe": 355,
      "ep": 356,
      "min": 357,
      "us": 358,
      "make": 359,
      "ca": 360,
      "other": 361,
      "mor": 362,
      "ough": 363,
      "reat": 364,
      "read": 365,
      "fri": 366,
      "ish": 367,
      "bus": 368,
      "pay": 369,
      "sorry": 370,
      "ity": 371,
      "does": 372,
      "ange": 373,
      "ese": 374,
      "new": 375,
      "pre": 376,
      "king": 377,
      "Are": 378,
      "ig": 379,
      "anything": 380,
      "ree": 381,
      "then": 382,
      "two": 383,
      "call": 384,
      "did": 385,
      "har": 386,
      "rice": 387,
      "table": 388,
      "ait": 389,
      "give": 390,
      "kind": 391,
      "only": 392,
      "There": 393,
      "minut": 394,
      "lit": 395,
      "Chin": 396,
      "tra": 397,
      "yuan": 398,
      "bet": 399,
      "mad": 400,
      "op": 401,
      "So": 402,
      "cour": 403,
      "ater": 404,
      "let": 405,
      "ars": 406,
      "irst": 407,
      "Could": 408,
      "pi": 409,
      "tion": 410,
      "lot": 411,
      "tell": 412,
      "sure": 413,
      "Good": 414,
      "long": 415,
      "ac": 416,
      "put": 417,
      "und": 418,
      "food": 419,
      "has": 420,
      "little": 421,
      "course": 422,
      "mon": 423,
      "na": 424,
      "col": 425,
      "fo": 426,
      "ving": 427,
      "ard": 428,
      "urn": 429,
      "tr": 430,
      "when": 431,
      "lease": 432,
      "He": 433,
      "hich": 434,
      "If": 435,
      "cou": 436,
      "price": 437,
      "ort": 438,
      "else": 439,
      "even": 440,
      "rink": 441,
      "ze": 442,
      "cial": 443,
      "ise": 444,
      "well": 445,
      "down": 446,
      "ning": 447,
      "eat": 448,
      "end": 449,
      "ave": 450,
      "ople": 451,
      "atch": 452,
      "could": 453,
      "find": 454,
      "wee": 455,
      "blem": 456,
      "problem": 457,
      "gu": 458,
      "Ok": 459,
      "Thanks": 460,
      "Why": 461,
      "able": 462,
      "something": 463,
      "every": 464,
      "after": 465,
      "All": 466,
      "her": 467,
      "tain": 468,
      "drink": 469,
      "change": 470,
      "where": 471,
      "ket": 472,
      "eah": 473,
      "work": 474,
      "clo": 475,
      "An": 476,
      "Where": 477,
      "first": 478,
      "better": 479,
      "Please": 480,
      "show": 481,
      "Ex": 482,
      "les": 483,
      "today": 484,
      "lf": 485,
      "ress": 486,
      "ye": 487,
      "people": 488,
      "doll": 489,
      "made": 490,
      "nice": 491,
      "she": 492,
      "oney": 493,
      "ular": 494,
      "ast": 495,
      "lu": 496,
      "xt": 497,
      "minutes": 498,
      "cle": 499,
      "ist": 500,
      "order": 501,
      "ounds": 502,
      "ser": 503,
      "sha": 504,
      "next": 505,
      "umber": 506,
      "ies": 507,
      "looking": 508,
      "many": 509,
      "Chinese": 510,
      "won": 511,
      "ouse": 512,
      "...": 513,
      "wait": 514,
      "thank": 515,
      "its": 516,
      "also": 517,
      "play": 518,
      "ready": 519,
      "great": 520,
      "ting": 521,
      "ang": 522,
      "ste": 523,
      "artment": 524,
      "Yeah": 525,
      "My": 526,
      "number": 527,
      "sk": 528,
      "stop": 529,
      "par": 530,
      "him": 531,
      "fore": 532,
      "check": 533,
      "ought": 534,
      "tic": 535,
      "mean": 536,
      "sp": 537,
      "most": 538,
      "raid": 539,
      "afraid": 540,
      "week": 541,
      "im": 542,
      "row": 543,
      "Re": 544,
      "may": 545,
      "wr": 546,
      "month": 547,
      "gl": 548,
      "ner": 549,
      "special": 550,
      "dollars": 551,
      "Of": 552,
      "cuse": 553,
      "pla": 554,
      "say": 555,
      "ide": 556,
      "Don": 557,
      "house": 558,
      "Any": 559,
      "ance": 560,
      "turn": 561,
      "sty": 562,
      "ked": 563,
      "these": 564,
      "size": 565,
      "inter": 566,
      "shop": 567,
      "color": 568,
      "bit": 569,
      "ph": 570,
      "Okay": 571,
      "been": 572,
      "Excuse": 573,
      "gg": 574,
      "keep": 575,
      "dif": 576,
      "hour": 577,
      "kes": 578,
      "before": 579,
      "friend": 580,
      "pt": 581,
      "ru": 582,
      "card": 583,
      "cre": 584,
      "cent": 585,
      "than": 586,
      "deli": 587,
      "morning": 588,
      "name": 589,
      "dress": 590,
      "ff": 591,
      "apartment": 592,
      "Have": 593,
      "din": 594,
      "line": 595,
      "te": 596,
      "mend": 597,
      "choo": 598,
      "last": 599,
      "quite": 600,
      "diff": 601,
      "fu": 602,
      "mer": 603,
      "home": 604,
      "ger": 605,
      "cost": 606,
      "Then": 607,
      "feel": 608,
      "commend": 609,
      "into": 610,
      "had": 611,
      "things": 612,
      "sm": 613,
      "recommend": 614,
      "must": 615,
      "sit": 616,
      "cause": 617,
      "ak": 618,
      "fee": 619,
      "gain": 620,
      "Mo": 621,
      "yes": 622,
      "never": 623,
      "Just": 624,
      "du": 625,
      "low": 626,
      "sing": 627,
      "ask": 628,
      "money": 629,
      "ping": 630,
      "men": 631,
      "sive": 632,
      "dri": 633,
      "fine": 634,
      "gr": 635,
      "who": 636,
      "erc": 637,
      "idea": 638,
      "St": 639,
      "alk": 640,
      "same": 641,
      "pet": 642,
      "ton": 643,
      "rece": 644,
      "few": 645,
      "ick": 646,
      "watch": 647,
      "bea": 648,
      "hand": 649,
      "hap": 650,
      "ass": 651,
      "Sorry": 652,
      "offee": 653,
      "cor": 654,
      "care": 655,
      "sta": 656,
      "phone": 657,
      "Hell": 658,
      "Will": 659,
      "best": 660,
      "pie": 661,
      "When": 662,
      "still": 663,
      "expen": 664,
      "exerc": 665,
      "Hello": 666,
      "big": 667,
      "man": 668,
      "around": 669,
      "high": 670,
      "bring": 671,
      "beaut": 672,
      "fer": 673,
      "Really": 674,
      "wrong": 675,
      "char": 676,
      "ms": 677,
      "mar": 678,
      "enough": 679,
      "bed": 680,
      "Which": 681,
      "ft": 682,
      "stu": 683,
      "start": 684,
      "hile": 685,
      "cut": 686,
      "jo": 687,
      "oup": 688,
      "self": 689,
      "ways": 690,
      "differe": 691,
      "coffee": 692,
      "eas": 693,
      "lar": 694,
      "ose": 695,
      "ue": 696,
      "mes": 697,
      "aper": 698,
      "expensive": 699,
      "In": 700,
      "fit": 701,
      "ful": 702,
      "ertain": 703,
      "irt": 704,
      "fast": 705,
      "doesn": 706,
      "50": 707,
      "ces": 708,
      "looks": 709,
      "TV": 710,
      "ves": 711,
      "bad": 712,
      "ction": 713,
      "hot": 714,
      "mind": 715,
      "int": 716,
      "rent": 717,
      "send": 718,
      "stea": 719,
      "ertainly": 720,
      "des": 721,
      "tri": 722,
      "reet": 723,
      "cat": 724,
      "mat": 725,
      "old": 726,
      "light": 727,
      "cook": 728,
      "ie": 729,
      "were": 730,
      "cho": 731,
      "alth": 732,
      "Anything": 733,
      "mis": 734,
      "which": 735,
      "pend": 736,
      "morrow": 737,
      "bre": 738,
      "vor": 739,
      "while": 740,
      "cond": 741,
      "small": 742,
      "his": 743,
      "ones": 744,
      "three": 745,
      "ins": 746,
      "ered": 747,
      "love": 748,
      "mail": 749,
      "count": 750,
      "Look": 751,
      "Not": 752,
      "dy": 753,
      "sounds": 754,
      "soup": 755,
      "ken": 756,
      "because": 757,
      "thanks": 758,
      "ild": 759,
      "tea": 760,
      "another": 761,
      "ition": 762,
      "always": 763,
      "iful": 764,
      "pair": 765,
      "clean": 766,
      "beautiful": 767,
      "Did": 768,
      "tor": 769,
      "form": 770,
      "weight": 771,
      "style": 772,
      "wine": 773,
      "those": 774,
      "suit": 775,
      "Maybe": 776,
      "place": 777,
      "To": 778,
      "tomorrow": 779,
      "store": 780,
      "diet": 781,
      "interest": 782,
      "dinner": 783,
      "cu": 784,
      "ever": 785,
      "five": 786,
      "lat": 787,
      "vice": 788,
      "Certainly": 789,
      "Mr": 790,
      "age": 791,
      "dis": 792,
      "usu": 793,
      "Co": 794,
      "night": 795,
      "went": 796,
      "reg": 797,
      "health": 798,
      "lack": 799,
      "sale": 800,
      "Be": 801,
      "mm": 802,
      "why": 803,
      "hard": 804,
      "shopping": 805,
      "ear": 806,
      "fin": 807,
      "port": 808,
      "recei": 809,
      "Hi": 810,
      "av": 811,
      "free": 812,
      "lcome": 813,
      "ash": 814,
      "Your": 815,
      "moment": 816,
      "comes": 817,
      "noon": 818,
      "prefer": 819,
      "act": 820,
      "cur": 821,
      "charge": 822,
      "again": 823,
      "walk": 824,
      "pop": 825,
      "10": 826,
      "Ta": 827,
      "air": 828,
      "hite": 829,
      "ually": 830,
      "left": 831,
      "ary": 832,
      "wear": 833,
      "different": 834,
      "30": 835,
      "book": 836,
      "hund": 837,
      "later": 838,
      "didn": 839,
      "hundred": 840,
      "Now": 841,
      "ee": 842,
      "might": 843,
      "ery": 844,
      "set": 845,
      "near": 846,
      "receipt": 847,
      "20": 848,
      "For": 849,
      "sal": 850,
      "tal": 851,
      "vers": 852,
      "isn": 853,
      "each": 854,
      "used": 855,
      "exercise": 856,
      "mi": 857,
      "swe": 858,
      "schoo": 859,
      "sell": 860,
      "ality": 861,
      "urant": 862,
      "produ": 863,
      "wonder": 864,
      "school": 865,
      "done": 866,
      "dish": 867,
      "ily": 868,
      "mil": 869,
      "wind": 870,
      "run": 871,
      "sed": 872,
      "clu": 873,
      "fre": 874,
      "oes": 875,
      "pr": 876,
      "lie": 877,
      "soon": 878,
      "favor": 879,
      "evening": 880,
      "steak": 881,
      "popular": 882,
      "mp": 883,
      "water": 884,
      "xi": 885,
      "road": 886,
      "qui": 887,
      "full": 888,
      "By": 889,
      "side": 890,
      "She": 891,
      "ag": 892,
      "four": 893,
      "top": 894,
      "sub": 895,
      "skin": 896,
      "usually": 897,
      "cr": 898,
      "ans": 899,
      "resta": 900,
      "already": 901,
      "move": 902,
      "rather": 903,
      "said": 904,
      "guess": 905,
      "restaurant": 906,
      "Wait": 907,
      "late": 908,
      "person": 909,
      "pic": 910,
      "stay": 911,
      "post": 912,
      "afternoon": 913,
      "year": 914,
      "ffic": 915,
      "Mom": 916,
      "bot": 917,
      "gar": 918,
      "worry": 919,
      "thought": 920,
      "station": 921,
      "often": 922,
      "friends": 923,
      "white": 924,
      "dog": 925,
      "taste": 926,
      "market": 927,
      "black": 928,
      "fam": 929,
      "flo": 930,
      "real": 931,
      "street": 932,
      "lic": 933,
      "traffic": 934,
      "cream": 935,
      "cents": 936,
      "floor": 937,
      "oun": 938,
      "their": 939,
      "mem": 940,
      "stra": 941,
      "half": 942,
      "hed": 943,
      "til": 944,
      "quality": 945,
      "cious": 946,
      "reser": 947,
      "body": 948,
      "Ab": 949,
      "da": 950,
      "ring": 951,
      "yet": 952,
      "stand": 953,
      "hair": 954,
      "unch": 955,
      "bir": 956,
      "cal": 957,
      "far": 958,
      "doing": 959,
      "six": 960,
      "days": 961,
      "China": 962,
      "bedroom": 963,
      "Dad": 964,
      "less": 965,
      "ps": 966,
      "ture": 967,
      "such": 968,
      "times": 969,
      "window": 970,
      "Al": 971,
      "bro": 972,
      "bought": 973,
      "cid": 974,
      "hur": 975,
      "open": 976,
      "part": 977,
      "chic": 978,
      "asure": 979,
      "build": 980,
      "redit": 981,
      "chicken": 982,
      "bar": 983,
      "bill": 984,
      "cl": 985,
      "rap": 986,
      "until": 987,
      "tonight": 988,
      "easy": 989,
      "product": 990,
      "milk": 991,
      "fresh": 992,
      "15": 993,
      "credit": 994,
      "fun": 995,
      "lunch": 996,
      "haven": 997,
      "cell": 998,
      "fect": 999,
      "minute": 1000,
      "piece": 1001,
      "Wow": 1002,
      "found": 1003,
      "ious": 1004,
      "ls": 1005,
      "ooked": 1006,
      "live": 1007,
      "ence": 1008,
      "Does": 1009,
      "coming": 1010,
      "ticket": 1011,
      "glad": 1012,
      "happen": 1013,
      "One": 1014,
      "bab": 1015,
      "fish": 1016,
      "sme": 1017,
      "toge": 1018,
      "second": 1019,
      "heard": 1020,
      "sur": 1021,
      "large": 1022,
      "break": 1023,
      "together": 1024,
      "away": 1025,
      "fi": 1026,
      "pu": 1027,
      "rough": 1028,
      "inclu": 1029,
      "sup": 1030,
      "Hey": 1031,
      "menu": 1032,
      "lieve": 1033,
      "cash": 1034,
      "ding": 1035,
      "head": 1036,
      "comput": 1037,
      "Great": 1038,
      "Ma": 1039,
      "ped": 1040,
      "ren": 1041,
      "med": 1042,
      "als": 1043,
      "welcome": 1044,
      "bag": 1045,
      "both": 1046,
      "service": 1047,
      "delicious": 1048,
      "Come": 1049,
      "egg": 1050,
      "sen": 1051,
      "door": 1052,
      "shoes": 1053,
      "train": 1054,
      "choose": 1055,
      "miss": 1056,
      "favorite": 1057,
      "Go": 1058,
      "ef": 1059,
      "gn": 1060,
      "ert": 1061,
      "though": 1062,
      "ities": 1063,
      "stick": 1064,
      "seems": 1065,
      "sage": 1066,
      "comp": 1067,
      "straight": 1068,
      "Li": 1069,
      "On": 1070,
      "ele": 1071,
      "por": 1072,
      "vie": 1073,
      "through": 1074,
      "str": 1075,
      "ros": 1076,
      "conven": 1077,
      "office": 1078,
      "pret": 1079,
      "Some": 1080,
      "true": 1081,
      "drive": 1082,
      "member": 1083,
      "Amer": 1084,
      "Who": 1085,
      "eight": 1086,
      "fare": 1087,
      "fru": 1088,
      "jing": 1089,
      "thes": 1090,
      "having": 1091,
      "ark": 1092,
      "eter": 1093,
      "bur": 1094,
      "pick": 1095,
      "computer": 1096,
      "cup": 1097,
      "city": 1098,
      "ded": 1099,
      "igh": 1100,
      "ved": 1101,
      "lear": 1102,
      "ool": 1103,
      "living": 1104,
      "beer": 1105,
      "irty": 1106,
      "shirt": 1107,
      "posit": 1108,
      "hours": 1109,
      "wenty": 1110,
      "building": 1111,
      "conveni": 1112,
      "200": 1113,
      "au": 1114,
      "spend": 1115,
      "war": 1116,
      "online": 1117,
      "veget": 1118,
      "seat": 1119,
      "lim": 1120,
      "ason": 1121,
      "ashi": 1122,
      "super": 1123,
      "ung": 1124,
      "kinds": 1125,
      "clothes": 1126,
      "healthy": 1127,
      "Right": 1128,
      "ail": 1129,
      "flow": 1130,
      "thday": 1131,
      "ator": 1132,
      "atur": 1133,
      "itche": 1134,
      "cks": 1135,
      "sugg": 1136,
      "ents": 1137,
      "cially": 1138,
      "tried": 1139,
      "regular": 1140,
      "pretty": 1141,
      "Sh": 1142,
      "gy": 1143,
      "gir": 1144,
      "pare": 1145,
      "return": 1146,
      "llow": 1147,
      "ital": 1148,
      "leave": 1149,
      "tern": 1150,
      "rac": 1151,
      "subway": 1152,
      "12": 1153,
      "Our": 1154,
      "Si": 1155,
      "bl": 1156,
      "ng": 1157,
      "py": 1158,
      "believe": 1159,
      "prom": 1160,
      "everything": 1161,
      "interested": 1162,
      "bottle": 1163,
      "60": 1164,
      "fr": 1165,
      "paper": 1166,
      "ides": 1167,
      "sign": 1168,
      "deal": 1169,
      "pos": 1170,
      "cheaper": 1171,
      "called": 1172,
      "Take": 1173,
      "picture": 1174,
      "About": 1175,
      "Get": 1176,
      "ago": 1177,
      "ki": 1178,
      "pur": 1179,
      "sle": 1180,
      "sof": 1181,
      "uce": 1182,
      "total": 1183,
      "seven": 1184,
      "ener": 1185,
      "pack": 1186,
      "offer": 1187,
      "brand": 1188,
      "coun": 1189,
      "gram": 1190,
      "birthday": 1191,
      "itchen": 1192,
      "At": 1193,
      "Every": 1194,
      "gre": 1195,
      "kitchen": 1196,
      "pon": 1197,
      "wn": 1198,
      "told": 1199,
      "meat": 1200,
      "sever": 1201,
      "address": 1202,
      "short": 1203,
      "terday": 1204,
      "getting": 1205,
      "deposit": 1206,
      "cont": 1207,
      "skirt": 1208,
      "maybe": 1209,
      "custo": 1210,
      "discount": 1211,
      "Very": 1212,
      "case": 1213,
      "dess": 1214,
      "fil": 1215,
      "furn": 1216,
      "fashi": 1217,
      "ican": 1218,
      "ob": 1219,
      "var": 1220,
      "taxi": 1221,
      "myself": 1222,
      "hope": 1223,
      "cheap": 1224,
      "000": 1225,
      "perfect": 1226,
      "ign": 1227,
      "yesterday": 1228,
      "whole": 1229,
      "joy": 1230,
      "smell": 1231,
      "dessert": 1232,
      "En": 1233,
      "Peter": 1234,
      "Sounds": 1235,
      "Yuan": 1236,
      "fif": 1237,
      "io": 1238,
      "kid": 1239,
      "twenty": 1240,
      "ont": 1241,
      "ating": 1242,
      "neck": 1243,
      "ult": 1244,
      "hold": 1245,
      "wash": 1246,
      "madam": 1247,
      "eating": 1248,
      "cards": 1249,
      "matter": 1250,
      "latest": 1251,
      "hurry": 1252,
      "several": 1253,
      "100": 1254,
      "Act": 1255,
      "Fine": 1256,
      "Give": 1257,
      "lis": 1258,
      "ward": 1259,
      "ince": 1260,
      "kend": 1261,
      "adv": 1262,
      "ift": 1263,
      "sible": 1264,
      "main": 1265,
      "box": 1266,
      "weekend": 1267,
      "message": 1268,
      "Alright": 1269,
      "American": 1270,
      "kilo": 1271,
      "Actually": 1272,
      "fat": 1273,
      "fill": 1274,
      "ither": 1275,
      "je": 1276,
      "tre": 1277,
      "ished": 1278,
      "espe": 1279,
      "enjoy": 1280,
      "beg": 1281,
      "ute": 1282,
      "yourself": 1283,
      "goes": 1284,
      "thinking": 1285,
      "bath": 1286,
      "ousand": 1287,
      "sport": 1288,
      "import": 1289,
      "ountain": 1290,
      "happened": 1291,
      "front": 1292,
      "especially": 1293,
      "Two": 1294,
      "gi": 1295,
      "gift": 1296,
      "ju": 1297,
      "lt": 1298,
      "val": 1299,
      "remember": 1300,
      "lip": 1301,
      "ables": 1302,
      "lose": 1303,
      "sion": 1304,
      "quare": 1305,
      "ments": 1306,
      "buying": 1307,
      "unders": 1308,
      "close": 1309,
      "glass": 1310,
      "chocol": 1311,
      "actly": 1312,
      "counter": 1313,
      "25": 1314,
      "blu": 1315,
      "iz": 1316,
      "land": 1317,
      "mas": 1318,
      "vation": 1319,
      "ref": 1320,
      "reason": 1321,
      "medi": 1322,
      "ord": 1323,
      "ings": 1324,
      "lea": 1325,
      "coll": 1326,
      "someone": 1327,
      "speak": 1328,
      "cated": 1329,
      "dishes": 1330,
      "products": 1331,
      "convenient": 1332,
      "Ro": 1333,
      "See": 1334,
      "bles": 1335,
      "lad": 1336,
      "range": 1337,
      "swi": 1338,
      "inting": 1339,
      "tomat": 1340,
      "esides": 1341,
      "arri": 1342,
      "wife": 1343,
      "roll": 1344,
      "musi": 1345,
      "nts": 1346,
      "face": 1347,
      "plan": 1348,
      "fries": 1349,
      "park": 1350,
      "stuff": 1351,
      "breakfast": 1352,
      "suppo": 1353,
      "underst": 1354,
      "bor": 1355,
      "ball": 1356,
      "bra": 1357,
      "cha": 1358,
      "ith": 1359,
      "ike": 1360,
      "vis": 1361,
      "wall": 1362,
      "once": 1363,
      "ated": 1364,
      "toast": 1365,
      "arant": 1366,
      "sol": 1367,
      "guarant": 1368,
      "waiting": 1369,
      "cord": 1370,
      "early": 1371,
      "bably": 1372,
      "learn": 1373,
      "chocolate": 1374,
      "understand": 1375,
      "With": 1376,
      "eye": 1377,
      "nut": 1378,
      "smo": 1379,
      "talk": 1380,
      "thousand": 1381,
      "ouble": 1382,
      "rest": 1383,
      "almost": 1384,
      "aren": 1385,
      "These": 1386,
      "ants": 1387,
      "mode": 1388,
      "lost": 1389,
      "wouldn": 1390,
      "sauce": 1391,
      "needs": 1392,
      "painting": 1393,
      "trying": 1394,
      "cake": 1395,
      "fried": 1396,
      "years": 1397,
      "cooking": 1398,
      "sweet": 1399,
      "class": 1400,
      "vegetables": 1401,
      "Engl": 1402,
      "listen": 1403,
      "utely": 1404,
      "solutely": 1405,
      "13": 1406,
      "cess": 1407,
      "mmer": 1408,
      "pot": 1409,
      "pres": 1410,
      "wish": 1411,
      "anne": 1412,
      "meter": 1413,
      "key": 1414,
      "beef": 1415,
      "taking": 1416,
      "takes": 1417,
      "add": 1418,
      "appet": 1419,
      "letter": 1420,
      "under": 1421,
      "shape": 1422,
      "girl": 1423,
      "green": 1424,
      "English": 1425,
      "cul": 1426,
      "ges": 1427,
      "ijing": 1428,
      "list": 1429,
      "round": 1430,
      "sc": 1431,
      "wrap": 1432,
      "gets": 1433,
      "makes": 1434,
      "point": 1435,
      "stock": 1436,
      "word": 1437,
      "calling": 1438,
      "says": 1439,
      "Steven": 1440,
      "Beijing": 1441,
      "actually": 1442,
      "reservation": 1443,
      "company": 1444,
      "fruit": 1445,
      "suggest": 1446,
      "soft": 1447,
      "fashion": 1448,
      "juice": 1449,
      "40": 1450,
      "45": 1451,
      "First": 1452,
      "Fren": 1453,
      "Me": 1454,
      "Un": 1455,
      "ctor": 1456,
      "either": 1457,
      "ian": 1458,
      "ling": 1459,
      "nce": 1460,
      "sy": 1461,
      "vo": 1462,
      "vit": 1463,
      "ines": 1464,
      "heav": 1465,
      "life": 1466,
      "advice": 1467,
      "tired": 1468,
      "sugar": 1469,
      "notice": 1470,
      "depend": 1471,
      "icy": 1472,
      "saw": 1473,
      "probably": 1474,
      "game": 1475,
      "board": 1476,
      "clock": 1477,
      "costs": 1478,
      "avail": 1479,
      "salad": 1480,
      "package": 1481,
      "guarantee": 1482,
      "French": 1483,
      "Hmm": 1484,
      "oil": 1485,
      "since": 1486,
      "wa": 1487,
      "zen": 1488,
      "ons": 1489,
      "town": 1490,
      "enter": 1491,
      "cept": 1492,
      "terri": 1493,
      "local": 1494,
      "mach": 1495,
      "program": 1496,
      "rooms": 1497,
      "tions": 1498,
      "clear": 1499,
      "receive": 1500,
      "exercis": 1501,
      "design": 1502,
      "choice": 1503,
      "Tom": 1504,
      "fix": 1505,
      "promise": 1506,
      "music": 1507,
      "annel": 1508,
      "heavy": 1509,
      "Af": 1510,
      "Ju": 1511,
      "Park": 1512,
      "catch": 1513,
      "ip": 1514,
      "mple": 1515,
      "ny": 1516,
      "ness": 1517,
      "oh": 1518,
      "rant": 1519,
      "zy": 1520,
      "seen": 1521,
      "cher": 1522,
      "ety": 1523,
      "cky": 1524,
      "sil": 1525,
      "decid": 1526,
      "games": 1527,
      "accid": 1528,
      "foods": 1529,
      "follow": 1530,
      "months": 1531,
      "colors": 1532,
      "Street": 1533,
      "haps": 1534,
      "condition": 1535,
      "cellent": 1536,
      "ross": 1537,
      "available": 1538,
      "After": 1539,
      "ali": 1540,
      "honey": 1541,
      "ial": 1542,
      "mate": 1543,
      "prac": 1544,
      "anta": 1545,
      "measure": 1546,
      "hall": 1547,
      "cel": 1548,
      "ade": 1549,
      "tive": 1550,
      "summer": 1551,
      "nty": 1552,
      "comfor": 1553,
      "past": 1554,
      "guest": 1555,
      "shall": 1556,
      "stead": 1557,
      "driving": 1558,
      "larger": 1559,
      "mming": 1560,
      "books": 1561,
      "wonderful": 1562,
      "fully": 1563,
      "famous": 1564,
      "blue": 1565,
      "medium": 1566,
      "decided": 1567,
      "77": 1568,
      "Bye": 1569,
      "fits": 1570,
      "ivers": 1571,
      "mountain": 1572,
      "spa": 1573,
      "whe": 1574,
      "thirty": 1575,
      "ount": 1576,
      "young": 1577,
      "atten": 1578,
      "ford": 1579,
      "area": 1580,
      "ride": 1581,
      "wice": 1582,
      "allow": 1583,
      "ample": 1584,
      "quick": 1585,
      "afford": 1586,
      "ched": 1587,
      "drinks": 1588,
      "itional": 1589,
      "interesting": 1590,
      "supermarket": 1591,
      "sleep": 1592,
      "begin": 1593,
      "important": 1594,
      "As": 1595,
      "Last": 1596,
      "ahead": 1597,
      "bank": 1598,
      "hu": 1599,
      "ile": 1600,
      "test": 1601,
      "treat": 1602,
      "uri": 1603,
      "ates": 1604,
      "met": 1605,
      "stic": 1606,
      "forgot": 1607,
      "ween": 1608,
      "coat": 1609,
      "pleasure": 1610,
      "Welcome": 1611,
      "moist": 1612,
      "without": 1613,
      "exactly": 1614,
      "ques": 1615,
      "worth": 1616,
      "world": 1617,
      "type": 1618,
      "delivery": 1619,
      "agree": 1620,
      "bargain": 1621,
      "eggs": 1622,
      "sense": 1623,
      "gym": 1624,
      "possible": 1625,
      "depends": 1626,
      "moisturi": 1627,
      "Fri": 1628,
      "Per": 1629,
      "Ve": 1630,
      "blo": 1631,
      "cy": 1632,
      "cer": 1633,
      "cool": 1634,
      "gent": 1635,
      "pri": 1636,
      "press": 1637,
      "ral": 1638,
      "ses": 1639,
      "song": 1640,
      "ond": 1641,
      "meet": 1642,
      "velo": 1643,
      "hear": 1644,
      "lia": 1645,
      "chop": 1646,
      "cold": 1647,
      "located": 1648,
      "extra": 1649,
      "save": 1650,
      "ellow": 1651,
      "facial": 1652,
      "dig": 1653,
      "brown": 1654,
      "trouble": 1655,
      "couple": 1656,
      "cloth": 1657,
      "stops": 1658,
      "Most": 1659,
      "stud": 1660,
      "hotel": 1661,
      "quiet": 1662,
      "view": 1663,
      "flowers": 1664,
      "fifty": 1665,
      "refund": 1666,
      "iversity": 1667,
      "16": 1668,
      "Tell": 1669,
      "cab": 1670,
      "cam": 1671,
      "dra": 1672,
      "dur": 1673,
      "fra": 1674,
      "hind": 1675,
      "rad": 1676,
      "ream": 1677,
      "iss": 1678,
      "likes": 1679,
      "chess": 1680,
      "exper": 1681,
      "ilities": 1682,
      "cons": 1683,
      "between": 1684,
      "colour": 1685,
      "anger": 1686,
      "parking": 1687,
      "partic": 1688,
      "aturday": 1689,
      "reasonable": 1690,
      "lady": 1691,
      "swimming": 1692,
      "accident": 1693,
      "particular": 1694,
      "300": 1695,
      "Mon": 1696,
      "Shall": 1697,
      "dro": 1698,
      "fig": 1699,
      "ia": 1700,
      "match": 1701,
      "ok": 1702,
      "ys": 1703,
      "iting": 1704,
      "iture": 1705,
      "seaf": 1706,
      "leg": 1707,
      "hate": 1708,
      "tax": 1709,
      "tables": 1710,
      "amins": 1711,
      "suits": 1712,
      "mom": 1713,
      "movie": 1714,
      "anyway": 1715,
      "simple": 1716,
      "ctri": 1717,
      "dire": 1718,
      "ations": 1719,
      "parcel": 1720,
      "diffic": 1721,
      "driver": 1722,
      "steamed": 1723,
      "desk": 1724,
      "print": 1725,
      "party": 1726,
      "electri": 1727,
      "warrant": 1728,
      "lipstick": 1729,
      "smoking": 1730,
      "consid": 1731,
      "seafood": 1732,
      "warranty": 1733,
      "Joh": 1734,
      "Ke": 1735,
      "Saturday": 1736,
      "ach": 1737,
      "booked": 1738,
      "cooked": 1739,
      "ili": 1740,
      "pes": 1741,
      "pounds": 1742,
      "scre": 1743,
      "square": 1744,
      "vered": 1745,
      "instead": 1746,
      "child": 1747,
      "behind": 1748,
      "docu": 1749,
      "dozen": 1750,
      "dec": 1751,
      "lace": 1752,
      "Isn": 1753,
      "roommate": 1754,
      "working": 1755,
      "bye": 1756,
      "gage": 1757,
      "brow": 1758,
      "speed": 1759,
      "serve": 1760,
      "means": 1761,
      "corner": 1762,
      "lovely": 1763,
      "sweater": 1764,
      "family": 1765,
      "pork": 1766,
      "parents": 1767,
      "furniture": 1768,
      "various": 1769,
      "appetiz": 1770,
      "comfortable": 1771,
      "John": 1772,
      "80": 1773,
      "Pe": 1774,
      "bread": 1775,
      "cra": 1776,
      "ctive": 1777,
      "ect": 1778,
      "gra": 1779,
      "hung": 1780,
      "mater": 1781,
      "oper": 1782,
      "oga": 1783,
      "ris": 1784,
      "sis": 1785,
      "sound": 1786,
      "twice": 1787,
      "ual": 1788,
      "ught": 1789,
      "ature": 1790,
      "vel": 1791,
      "arling": 1792,
      "along": 1793,
      "weigh": 1794,
      "cover": 1795,
      "ship": 1796,
      "sometimes": 1797,
      "bun": 1798,
      "goods": 1799,
      "wasn": 1800,
      "using": 1801,
      "styles": 1802,
      "rush": 1803,
      "started": 1804,
      "difference": 1805,
      "strong": 1806,
      "burger": 1807,
      "Perhaps": 1808,
      "digital": 1809,
      "figure": 1810,
      "People": 1811,
      "hungry": 1812,
      "22": 1813,
      "Ap": 1814,
      "Hot": 1815,
      "Ne": 1816,
      "bers": 1817,
      "bright": 1818,
      "cked": 1819,
      "clim": 1820,
      "dream": 1821,
      "hit": 1822,
      "hang": 1823,
      "jam": 1824,
      "mid": 1825,
      "oth": 1826,
      "pow": 1827,
      "pass": 1828,
      "son": 1829,
      "meal": 1830,
      "least": 1831,
      "lice": 1832,
      "ense": 1833,
      "roast": 1834,
      "ama": 1835,
      "sun": 1836,
      "excellent": 1837,
      "ices": 1838,
      "app": 1839,
      "appe": 1840,
      "quar": 1841,
      "took": 1842,
      "stores": 1843,
      "paint": 1844,
      "couldn": 1845,
      "dollar": 1846,
      "stem": 1847,
      "watching": 1848,
      "happy": 1849,
      "job": 1850,
      "fitting": 1851,
      "finish": 1852,
      "Tai": 1853,
      "include": 1854,
      "Should": 1855,
      "film": 1856,
      "necklace": 1857,
      "system": 1858,
      "appetizer": 1859,
      "Hotel": 1860,
      "--": 1861,
      "500": 1862,
      "Ah": 1863,
      "Ha": 1864,
      "Show": 1865,
      "bat": 1866,
      "bal": 1867,
      "dow": 1868,
      "ior": 1869,
      "inch": 1870,
      "inform": 1871,
      "sent": 1872,
      "ster": 1873,
      "stam": 1874,
      "ham": 1875,
      "irr": 1876,
      "irs": 1877,
      "outside": 1878,
      "dear": 1879,
      "develo": 1880,
      "making": 1881,
      "apple": 1882,
      "carpet": 1883,
      "percent": 1884,
      "busy": 1885,
      "shadow": 1886,
      "easily": 1887,
      "included": 1888,
      "vitamins": 1889,
      "silk": 1890,
      "Ac": 1891,
      "Mac": 1892,
      "Sup": 1893,
      "Smi": 1894,
      "Try": 1895,
      "aking": 1896,
      "bas": 1897,
      "den": 1898,
      "gas": 1899,
      "ience": 1900,
      "natur": 1901,
      "shel": 1902,
      "iness": 1903,
      "estern": 1904,
      "secur": 1905,
      "tail": 1906,
      "ird": 1907,
      "tires": 1908,
      "wanted": 1909,
      "maga": 1910,
      "seem": 1911,
      "hoto": 1912,
      "comple": 1913,
      "respon": 1914,
      "ousers": 1915,
      "cakes": 1916,
      "pies": 1917,
      "account": 1918,
      "accept": 1919,
      "trousers": 1920,
      "problems": 1921,
      "drinking": 1922,
      "served": 1923,
      "share": 1924,
      "playing": 1925,
      "weeks": 1926,
      "plain": 1927,
      "saying": 1928,
      "bigger": 1929,
      "curtain": 1930,
      "talking": 1931,
      "ages": 1932,
      "realtor": 1933,
      "pub": 1934,
      "customer": 1935,
      "bathroom": 1936,
      "supposed": 1937,
      "space": 1938,
      "radio": 1939,
      "experience": 1940,
      "Keep": 1941,
      "Apple": 1942,
      "Smith": 1943,
      "security": 1944,
      "magaz": 1945,
      "23": 1946,
      "Air": 1947,
      "Besides": 1948,
      "Turn": 1949,
      "boo": 1950,
      "cri": 1951,
      "cas": 1952,
      "dle": 1953,
      "dist": 1954,
      "fall": 1955,
      "flat": 1956,
      "gone": 1957,
      "kill": 1958,
      "ming": 1959,
      "mine": 1960,
      "tu": 1961,
      "zing": 1962,
      "inst": 1963,
      "recent": 1964,
      "requi": 1965,
      "orm": 1966,
      "section": 1967,
      "doctor": 1968,
      "neigh": 1969,
      "ties": 1970,
      "amount": 1971,
      "wants": 1972,
      "ext": 1973,
      "cheese": 1974,
      "cars": 1975,
      "roof": 1976,
      "ational": 1977,
      "istered": 1978,
      "delivered": 1979,
      "higher": 1980,
      "mistake": 1981,
      "inside": 1982,
      "registered": 1983,
      "hurt": 1984,
      "sticks": 1985,
      "jeans": 1986,
      "ordered": 1987,
      "tomato": 1988,
      "girlfriend": 1989,
      "allowed": 1990,
      "meters": 1991,
      "information": 1992,
      "Super": 1993,
      "24": 1994,
      "Bob": 1995,
      "Cent": 1996,
      "Mad": 1997,
      "US": 1998,
      "Uh": 1999,
      "bs": 2000,
      "cap": 2001,
      "em": 2002,
      "gener": 2003,
      "ker": 2004,
      "mirr": 2005,
      "nap": 2006,
      "pan": 2007,
      "photo": 2008,
      "sna": 2009,
      "sort": 2010,
      "tour": 2011,
      "za": 2012,
      "refri": 2013,
      "heart": 2014,
      "chuan": 2015,
      "channel": 2016,
      "sold": 2017,
      "Three": 2018,
      "gold": 2019,
      "dep": 2020,
      "exc": 2021,
      "example": 2022,
      "saving": 2023,
      "carry": 2024,
      "conf": 2025,
      "gave": 2026,
      "came": 2027,
      "trans": 2028,
      "downtown": 2029,
      "series": 2030,
      "waiter": 2031,
      "gerator": 2032,
      "intosh": 2033,
      "lower": 2034,
      "handle": 2035,
      "careful": 2036,
      "studi": 2037,
      "join": 2038,
      "trim": 2039,
      "finished": 2040,
      "mium": 2041,
      "Absolutely": 2042,
      "haircut": 2043,
      "Sichuan": 2044,
      "furnished": 2045,
      "chase": 2046,
      "nutr": 2047,
      "students": 2048,
      "draw": 2049,
      "difficult": 2050,
      "consider": 2051,
      "children": 2052,
      "sister": 2053,
      "others": 2054,
      "mirror": 2055,
      "refrigerator": 2056,
      "19": 2057,
      "Hum": 2058,
      "Mar": 2059,
      "ale": 2060,
      "bly": 2061,
      "besides": 2062,
      "bike": 2063,
      "cil": 2064,
      "dge": 2065,
      "dum": 2066,
      "darling": 2067,
      "equi": 2068,
      "fight": 2069,
      "gine": 2070,
      "iety": 2071,
      "norm": 2072,
      "olo": 2073,
      "rul": 2074,
      "sw": 2075,
      "vac": 2076,
      "yellow": 2077,
      "ane": 2078,
      "itch": 2079,
      "len": 2080,
      "lead": 2081,
      "lend": 2082,
      "owe": 2083,
      "chang": 2084,
      "utilities": 2085,
      "ote": 2086,
      "tast": 2087,
      "tight": 2088,
      "within": 2089,
      "hic": 2090,
      "quet": 2091,
      "berry": 2092,
      "paying": 2093,
      "telling": 2094,
      "across": 2095,
      "works": 2096,
      "serious": 2097,
      "player": 2098,
      "spicy": 2099,
      "places": 2100,
      "gging": 2101,
      "tele": 2102,
      "feels": 2103,
      "single": 2104,
      "faster": 2105,
      "lights": 2106,
      "country": 2107,
      "Because": 2108,
      "broken": 2109,
      "fruits": 2110,
      "pictures": 2111,
      "kidding": 2112,
      "advanta": 2113,
      "value": 2114,
      "Friday": 2115,
      "during": 2116,
      "drop": 2117,
      "material": 2118,
      "New": 2119,
      "shelf": 2120,
      "public": 2121,
      "recently": 2122,
      "neighbor": 2123,
      "66": 2124,
      "Br": 2125,
      "Bring": 2126,
      "Many": 2127,
      "Mike": 2128,
      "Miss": 2129,
      "Se": 2130,
      "Ti": 2131,
      "dark": 2132,
      "fur": 2133,
      "gen": 2134,
      "hood": 2135,
      "itor": 2136,
      "pas": 2137,
      "pper": 2138,
      "pants": 2139,
      "sat": 2140,
      "sour": 2141,
      "scr": 2142,
      "vide": 2143,
      "wood": 2144,
      "rela": 2145,
      "repair": 2146,
      "attra": 2147,
      "tory": 2148,
      "ordin": 2149,
      "venty": 2150,
      "sea": 2151,
      "forward": 2152,
      "being": 2153,
      "aret": 2154,
      "asking": 2155,
      "code": 2156,
      "ads": 2157,
      "absolutely": 2158,
      "rol": 2159,
      "pepper": 2160,
      "exchange": 2161,
      "prove": 2162,
      "unk": 2163,
      "university": 2164,
      "dial": 2165,
      "news": 2166,
      "trad": 2167,
      "coupon": 2168,
      "everyone": 2169,
      "lucky": 2170,
      "checks": 2171,
      "Reg": 2172,
      "deliver": 2173,
      "cute": 2174,
      "dieting": 2175,
      "nearby": 2176,
      "mile": 2177,
      "seller": 2178,
      "Waiter": 2179,
      "personal": 2180,
      "license": 2181,
      "bird": 2182,
      "brother": 2183,
      "function": 2184,
      "foundation": 2185,
      "trainer": 2186,
      "seats": 2187,
      "variety": 2188,
      "leather": 2189,
      "suppose": 2190,
      "potat": 2191,
      "Julia": 2192,
      "okay": 2193,
      "direction": 2194,
      "screen": 2195,
      "Macintosh": 2196,
      "natural": 2197,
      "curtains": 2198,
      "department": 2199,
      "relax": 2200,
      "ordinary": 2201,
      "Fo": 2202,
      "His": 2203,
      "Honey": 2204,
      "Mum": 2205,
      "Par": 2206,
      "Su": 2207,
      "Sund": 2208,
      "ager": 2209,
      "cere": 2210,
      "cot": 2211,
      "dry": 2212,
      "dam": 2213,
      "eed": 2214,
      "grap": 2215,
      "ium": 2216,
      "pure": 2217,
      "scar": 2218,
      "yle": 2219,
      "ination": 2220,
      "anim": 2221,
      "reci": 2222,
      "redi": 2223,
      "ited": 2224,
      "ors": 2225,
      "ingredi": 2226,
      "kept": 2227,
      "arrange": 2228,
      "forget": 2229,
      "ries": 2230,
      "rich": 2231,
      "wea": 2232,
      "tap": 2233,
      "tice": 2234,
      "amond": 2235,
      "mov": 2236,
      "mother": 2237,
      "Nothing": 2238,
      "loves": 2239,
      "dead": 2240,
      "apolo": 2241,
      "hosp": 2242,
      "washed": 2243,
      "shouldn": 2244,
      "nose": 2245,
      "nothing": 2246,
      "pencil": 2247,
      "contra": 2248,
      "fac": 2249,
      "fair": 2250,
      "diamond": 2251,
      "ately": 2252,
      "perfu": 2253,
      "woman": 2254,
      "brought": 2255,
      "reading": 2256,
      "lots": 2257,
      "longer": 2258,
      "tics": 2259,
      "dressing": 2260,
      "stage": 2261,
      "Looks": 2262,
      "usual": 2263,
      "postcards": 2264,
      "bags": 2265,
      "Like": 2266,
      "Only": 2267,
      "skirts": 2268,
      "sports": 2269,
      "gives": 2270,
      "collect": 2271,
      "arrive": 2272,
      "voice": 2273,
      "wake": 2274,
      "practice": 2275,
      "prices": 2276,
      "document": 2277,
      "climb": 2278,
      "middle": 2279,
      "batter": 2280,
      "stamps": 2281,
      "Central": 2282,
      "Madam": 2283,
      "equip": 2284,
      "rules": 2285,
      "Sunday": 2286,
      "ingredients": 2287,
      "Gu": 2288,
      "Hon": 2289,
      "Jim": 2290,
      "Sir": 2291,
      "Square": 2292,
      "Wang": 2293,
      "bt": 2294,
      "bow": 2295,
      "dou": 2296,
      "dad": 2297,
      "eyes": 2298,
      "fic": 2299,
      "ged": 2300,
      "garet": 2301,
      "ier": 2302,
      "kung": 2303,
      "mask": 2304,
      "non": 2305,
      "net": 2306,
      "ned": 2307,
      "ss": 2308,
      "slow": 2309,
      "ush": 2310,
      "vid": 2311,
      "wal": 2312,
      "wise": 2313,
      "zes": 2314,
      "zhen": 2315,
      "thin": 2316,
      "incre": 2317,
      "ances": 2318,
      "ats": 2319,
      "atta": 2320,
      "isa": 2321,
      "estions": 2322,
      "step": 2323,
      "oot": 2324,
      "bell": 2325,
      "ried": 2326,
      "ases": 2327,
      "cosme": 2328,
      "rose": 2329,
      "rain": 2330,
      "rail": 2331,
      "pect": 2332,
      "lock": 2333,
      "stove": 2334,
      "story": 2335,
      "cigaret": 2336,
      "speaking": 2337,
      "guys": 2338,
      "aster": 2339,
      "shamp": 2340,
      "stopwatch": 2341,
      "mostly": 2342,
      "write": 2343,
      "dining": 2344,
      "singing": 2345,
      "manager": 2346,
      "Intern": 2347,
      "airmail": 2348,
      "sweat": 2349,
      "club": 2350,
      "steaks": 2351,
      "reserve": 2352,
      "pull": 2353,
      "Sometimes": 2354,
      "suggestions": 2355,
      "Size": 2356,
      "blood": 2357,
      "kids": 2358,
      "Road": 2359,
      "culture": 2360,
      "scen": 2361,
      "machine": 2362,
      "exercises": 2363,
      "exercising": 2364,
      "blocks": 2365,
      "camer": 2366,
      "balance": 2367,
      "Accord": 2368,
      "transfer": 2369,
      "dumpl": 2370,
      "telephone": 2371,
      "Regular": 2372,
      "doubt": 2373,
      "shampoo": 2374,
      "18": 2375,
      "67": 2376,
      "De": 2377,
      "Fill": 2378,
      "Lu": 2379,
      "Mary": 2380,
      "Never": 2381,
      "Po": 2382,
      "Western": 2383,
      "Yoga": 2384,
      "ack": 2385,
      "crow": 2386,
      "dance": 2387,
      "danger": 2388,
      "mall": 2389,
      "overs": 2390,
      "pity": 2391,
      "rate": 2392,
      "ues": 2393,
      "yeah": 2394,
      "third": 2395,
      "anti": 2396,
      "rect": 2397,
      "remind": 2398,
      "ised": 2399,
      "sele": 2400,
      "leep": 2401,
      "hai": 2402,
      "habit": 2403,
      "heel": 2404,
      "lif": 2405,
      "lier": 2406,
      "liqu": 2407,
      "engine": 2408,
      "altogether": 2409,
      "soci": 2410,
      "soda": 2411,
      "wel": 2412,
      "eding": 2413,
      "coho": 2414,
      "necess": 2415,
      "buil": 2416,
      "taken": 2417,
      "feature": 2418,
      "extre": 2419,
      "laund": 2420,
      "estry": 2421,
      "police": 2422,
      "stomach": 2423,
      "father": 2424,
      "fact": 2425,
      "plat": 2426,
      "ouses": 2427,
      "prepare": 2428,
      "nail": 2429,
      "tru": 2430,
      "shows": 2431,
      "lug": 2432,
      "apartments": 2433,
      "teen": 2434,
      "fujing": 2435,
      "pets": 2436,
      "stairs": 2437,
      "brea": 2438,
      "Coke": 2439,
      "prof": 2440,
      "moved": 2441,
      "baby": 2442,
      "audi": 2443,
      "flower": 2444,
      "contest": 2445,
      "custom": 2446,
      "washing": 2447,
      "trees": 2448,
      "walls": 2449,
      "practic": 2450,
      "attention": 2451,
      "chops": 2452,
      "Monday": 2453,
      "electricity": 2454,
      "quarter": 2455,
      "napk": 2456,
      "Time": 2457,
      "traditional": 2458,
      "tapestry": 2459,
      "movies": 2460,
      "Wangfujing": 2461,
      "crowded": 2462,
      "built": 2463,
      "extreme": 2464,
      "250": 2465,
      "35": 2466,
      "75": 2467,
      "Bar": 2468,
      "Che": 2469,
      "Cant": 2470,
      "Four": 2471,
      "King": 2472,
      "Kent": 2473,
      "Next": 2474,
      "Or": 2475,
      "Pre": 2476,
      "Visa": 2477,
      "White": 2478,
      "ais": 2479,
      "base": 2480,
      "bicy": 2481,
      "cir": 2482,
      "center": 2483,
      "det": 2484,
      "date": 2485,
      "dden": 2486,
      "fl": 2487,
      "fla": 2488,
      "gers": 2489,
      "las": 2490,
      "ners": 2491,
      "nie": 2492,
      "os": 2493,
      "pers": 2494,
      "phy": 2495,
      "rare": 2496,
      "ug": 2497,
      "va": 2498,
      "onese": 2499,
      "ina": 2500,
      "ini": 2501,
      "inten": 2502,
      "ati": 2503,
      "tom": 2504,
      "meals": 2505,
      "orange": 2506,
      "secre": 2507,
      "star": 2508,
      "stri": 2509,
      "forty": 2510,
      "wide": 2511,
      "cela": 2512,
      "asked": 2513,
      "tag": 2514,
      "tact": 2515,
      "plenty": 2516,
      "bud": 2517,
      "anywhere": 2518,
      "hire": 2519,
      "decor": 2520,
      "iling": 2521,
      "process": 2522,
      "items": 2523,
      "chedu": 2524,
      "venue": 2525,
      "paid": 2526,
      "boss": 2527,
      "overweight": 2528,
      "Channel": 2529,
      "fridge": 2530,
      "business": 2531,
      "played": 2532,
      "spot": 2533,
      "improve": 2534,
      "ideas": 2535,
      "Anyway": 2536,
      "smart": 2537,
      "sitting": 2538,
      "carefully": 2539,
      "study": 2540,
      "cookies": 2541,
      "breast": 2542,
      "suitable": 2543,
      "against": 2544,
      "sets": 2545,
      "selling": 2546,
      "persons": 2547,
      "members": 2548,
      "reserved": 2549,
      "daught": 2550,
      "surface": 2551,
      "effect": 2552,
      "porcela": 2553,
      "roses": 2554,
      "purchase": 2555,
      "control": 2556,
      "films": 2557,
      "glasses": 2558,
      "visit": 2559,
      "paintings": 2560,
      "clearly": 2561,
      "moisturiz": 2562,
      "gentle": 2563,
      "fragr": 2564,
      "amazing": 2565,
      "basket": 2566,
      "require": 2567,
      "tastes": 2568,
      "neighborhood": 2569,
      "attractive": 2570,
      "cotton": 2571,
      "scarf": 2572,
      "cosmetics": 2573,
      "railway": 2574,
      "dumplings": 2575,
      "Cantonese": 2576,
      "basement": 2577,
      "secret": 2578,
      "chedule": 2579,
      "daughter": 2580,
      "porcelain": 2581,
      "120": 2582,
      "Chi": 2583,
      "Over": 2584,
      "Qu": 2585,
      "Tian": 2586,
      "Won": 2587,
      "ah": 2588,
      "ao": 2589,
      "ban": 2590,
      "band": 2591,
      "bite": 2592,
      "cry": 2593,
      "certainly": 2594,
      "ds": 2595,
      "dirty": 2596,
      "fan": 2597,
      "foot": 2598,
      "lay": 2599,
      "mut": 2600,
      "ptop": 2601,
      "proof": 2602,
      "qi": 2603,
      "rand": 2604,
      "sand": 2605,
      "tou": 2606,
      "ted": 2607,
      "tles": 2608,
      "uc": 2609,
      "wberry": 2610,
      "anmen": 2611,
      "rear": 2612,
      "report": 2613,
      "record": 2614,
      "theat": 2615,
      "itten": 2616,
      "issu": 2617,
      "memor": 2618,
      "ork": 2619,
      "orig": 2620,
      "inger": 2621,
      "chance": 2622,
      "alcoho": 2623,
      "uts": 2624,
      "rid": 2625,
      "celet": 2626,
      "tasty": 2627,
      "yours": 2628,
      "sho": 2629,
      "among": 2630,
      "sult": 2631,
      "sudden": 2632,
      "moon": 2633,
      "anyone": 2634,
      "pear": 2635,
      "urry": 2636,
      "sight": 2637,
      "deep": 2638,
      "feet": 2639,
      "express": 2640,
      "ental": 2641,
      "ica": 2642,
      "appre": 2643,
      "estyle": 2644,
      "arts": 2645,
      "worked": 2646,
      "ples": 2647,
      "brary": 2648,
      "given": 2649,
      "acket": 2650,
      "everywhere": 2651,
      "shower": 2652,
      "angqi": 2653,
      "spare": 2654,
      "spent": 2655,
      "plastic": 2656,
      "team": 2657,
      "Station": 2658,
      "cording": 2659,
      "pieces": 2660,
      "starting": 2661,
      "cats": 2662,
      "Mrs": 2663,
      "earlier": 2664,
      "avo": 2665,
      "airport": 2666,
      "running": 2667,
      "xiangqi": 2668,
      "garage": 2669,
      "famili": 2670,
      "floors": 2671,
      "sixty": 2672,
      "broke": 2673,
      "Mao": 2674,
      "Make": 2675,
      "convenience": 2676,
      "Everything": 2677,
      "advance": 2678,
      "gize": 2679,
      "massage": 2680,
      "tomatic": 2681,
      "bracelet": 2682,
      "waist": 2683,
      "antastic": 2684,
      "iled": 2685,
      "brows": 2686,
      "powder": 2687,
      "hamburger": 2688,
      "magazine": 2689,
      "savings": 2690,
      "vacu": 2691,
      "leaded": 2692,
      "potatoes": 2693,
      "Follow": 2694,
      "graphic": 2695,
      "weather": 2696,
      "apologize": 2697,
      "perfume": 2698,
      "battery": 2699,
      "dangerous": 2700,
      "customers": 2701,
      "napkins": 2702,
      "vacan": 2703,
      "origin": 2704,
      "appreci": 2705,
      "160": 2706,
      "38": 2707,
      "Bak": 2708,
      "Eight": 2709,
      "Her": 2710,
      "ID": 2711,
      "Jing": 2712,
      "Mic": 2713,
      "Mmm": 2714,
      "Mountain": 2715,
      "Tim": 2716,
      "aw": 2717,
      "bits": 2718,
      "dan": 2719,
      "dest": 2720,
      "fle": 2721,
      "fry": 2722,
      "gro": 2723,
      "ik": 2724,
      "jacket": 2725,
      "lance": 2726,
      "pink": 2727,
      "pra": 2728,
      "pound": 2729,
      "ption": 2730,
      "ray": 2731,
      "sca": 2732,
      "slot": 2733,
      "slack": 2734,
      "schedule": 2735,
      "vator": 2736,
      "winter": 2737,
      "yo": 2738,
      "zza": 2739,
      "ering": 2740,
      "throw": 2741,
      "thick": 2742,
      "inet": 2743,
      "insur": 2744,
      "reli": 2745,
      "isite": 2746,
      "sel": 2747,
      "stro": 2748,
      "state": 2749,
      "lies": 2750,
      "bean": 2751,
      "alone": 2752,
      "social": 2753,
      "rimp": 2754,
      "wed": 2755,
      "otion": 2756,
      "cock": 2757,
      "vert": 2758,
      "irm": 2759,
      "ades": 2760,
      "advert": 2761,
      "tiv": 2762,
      "bulance": 2763,
      "anymore": 2764,
      "log": 2765,
      "gee": 2766,
      "sical": 2767,
      "sizes": 2768,
      "dezhen": 2769,
      "map": 2770,
      "known": 2771,
      "felt": 2772,
      "exce": 2773,
      "exqu": 2774,
      "expect": 2775,
      "law": 2776,
      "upstairs": 2777,
      "ills": 2778,
      "pose": 2779,
      "cara": 2780,
      "plants": 2781,
      "perm": 2782,
      "perform": 2783,
      "perio": 2784,
      "brush": 2785,
      "present": 2786,
      "oppos": 2787,
      "pian": 2788,
      "pizza": 2789,
      "putting": 2790,
      "monitor": 2791,
      "Exactly": 2792,
      "sheet": 2793,
      "anghai": 2794,
      "impres": 2795,
      "writing": 2796,
      "specialty": 2797,
      "shops": 2798,
      "rude": 2799,
      "tee": 2800,
      "feeling": 2801,
      "beauty": 2802,
      "mark": 2803,
      "easier": 2804,
      "fitness": 2805,
      "ield": 2806,
      "cleans": 2807,
      "cleaning": 2808,
      "Today": 2809,
      "salty": 2810,
      "sells": 2811,
      "bottom": 2812,
      "ounce": 2813,
      "daily": 2814,
      "windows": 2815,
      "Also": 2816,
      "funny": 2817,
      "eleg": 2818,
      "limit": 2819,
      "Shanghai": 2820,
      "girls": 2821,
      "racket": 2822,
      "sofa": 2823,
      "mascara": 2824,
      "stuffed": 2825,
      "additional": 2826,
      "scri": 2827,
      "vol": 2828,
      "terrible": 2829,
      "terribly": 2830,
      "programs": 2831,
      "cabinet": 2832,
      "develop": 2833,
      "exciting": 2834,
      "advantages": 2835,
      "Brown": 2836,
      "recipe": 2837,
      "hospital": 2838,
      "contract": 2839,
      "Honda": 2840,
      "camera": 2841,
      "luggage": 2842,
      "Premium": 2843,
      "bicycle": 2844,
      "physical": 2845,
      "budget": 2846,
      "basketball": 2847,
      "vacant": 2848,
      "Jingdezhen": 2849,
      "slacks": 2850,
      "insurance": 2851,
      "cocktail": 2852,
      "exquisite": 2853,
      "period": 2854,
      "opposite": 2855,
      "32": 2856,
      "70": 2857,
      "89": 2858,
      "Ar": 2859,
      "Bo": 2860,
      "Bet": 2861,
      "Cor": 2862,
      "Coffee": 2863,
      "Gener": 2864,
      "Hel": 2865,
      "Hurry": 2866,
      "Lon": 2867,
      "Stop": 2868,
      "Ten": 2869,
      "Tues": 2870,
      "While": 2871,
      "ame": 2872,
      "bber": 2873,
      "cli": 2874,
      "cert": 2875,
      "fro": 2876,
      "flight": 2877,
      "flea": 2878,
      "fantastic": 2879,
      "gest": 2880,
      "hon": 2881,
      "ize": 2882,
      "lin": 2883,
      "looked": 2884,
      "lines": 2885,
      "mic": 2886,
      "pig": 2887,
      "rum": 2888,
      "squ": 2889,
      "sample": 2890,
      "tes": 2891,
      "uine": 2892,
      "wan": 2893,
      "wool": 2894,
      "yard": 2895,
      "outh": 2896,
      "anes": 2897,
      "ret": 2898,
      "orge": 2899,
      "season": 2900,
      "hael": 2901,
      "arm": 2902,
      "arti": 2903,
      "oose": 2904,
      "ric": 2905,
      "wich": 2906,
      "copy": 2907,
      "mur": 2908,
      "hill": 2909,
      "note": 2910,
      "urt": 2911,
      "simp": 2912,
      "east": 2913,
      "exam": 2914,
      "except": 2915,
      "lazy": 2916,
      "laptop": 2917,
      "iced": 2918,
      "tooth": 2919,
      "host": 2920,
      "ility": 2921,
      "cted": 2922,
      "cient": 2923,
      "ump": 2924,
      "contact": 2925,
      "concert": 2926,
      "fault": 2927,
      "boy": 2928,
      "Aren": 2929,
      "calls": 2930,
      "mony": 2931,
      "tran": 2932,
      "everyday": 2933,
      "serv": 2934,
      "written": 2935,
      "tem": 2936,
      "Move": 2937,
      "mention": 2938,
      "ground": 2939,
      "watches": 2940,
      "correct": 2941,
      "highest": 2942,
      "jogging": 2943,
      "lighter": 2944,
      "itions": 2945,
      "cleansing": 2946,
      "final": 2947,
      "finite": 2948,
      "salmon": 2949,
      "miles": 2950,
      "runs": 2951,
      "prote": 2952,
      "postal": 2953,
      "bottles": 2954,
      "licence": 2955,
      "strawberry": 2956,
      "rings": 2957,
      "bedrooms": 2958,
      "seconds": 2959,
      "God": 2960,
      "compli": 2961,
      "America": 2962,
      "Six": 2963,
      "blouse": 2964,
      "contin": 2965,
      "boxes": 2966,
      "kilos": 2967,
      "model": 2968,
      "appetite": 2969,
      "University": 2970,
      "entertain": 2971,
      "wheat": 2972,
      "quickly": 2973,
      "sleepy": 2974,
      "question": 2975,
      "crazy": 2976,
      "power": 2977,
      "complete": 2978,
      "snack": 2979,
      "normal": 2980,
      "genuine": 2981,
      "Post": 2982,
      "antiques": 2983,
      "lifestyle": 2984,
      "necessary": 2985,
      "laundry": 2986,
      "platform": 2987,
      "Check": 2988,
      "Quite": 2989,
      "issue": 2990,
      "alcohol": 2991,
      "pearls": 2992,
      "avoid": 2993,
      "graphics": 2994,
      "appreciate": 2995,
      "Michael": 2996,
      "Help": 2997,
      "London": 2998,
      "Tuesday": 2999,
      "simply": 3000,
      "17": 3001,
      "39": 3002,
      "400": 3003,
      "98": 3004,
      "Around": 3005,
      "Avenue": 3006,
      "Car": 3007,
      "Card": 3008,
      "Dep": 3009,
      "EE": 3010,
      "Five": 3011,
      "From": 3012,
      "Hea": 3013,
      "Ind": 3014,
      "Jen": 3015,
      "Jap": 3016,
      "Jane": 3017,
      "Le": 3018,
      "Med": 3019,
      "Master": 3020,
      "Nan": 3021,
      "Nor": 3022,
      "Put": 3023,
      "Sp": 3024,
      "Spe": 3025,
      "Shar": 3026,
      "Wall": 3027,
      "Yellow": 3028,
      "bes": 3029,
      "bla": 3030,
      "bby": 3031,
      "bars": 3032,
      "cin": 3033,
      "cing": 3034,
      "cand": 3035,
      "cate": 3036,
      "chair": 3037,
      "equ": 3038,
      "emp": 3039,
      "fy": 3040,
      "firm": 3041,
      "gs": 3042,
      "hor": 3043,
      "ima": 3044,
      "jor": 3045,
      "ky": 3046,
      "lou": 3047,
      "lord": 3048,
      "nic": 3049,
      "nger": 3050,
      "od": 3051,
      "ove": 3052,
      "oven": 3053,
      "oily": 3054,
      "pool": 3055,
      "ran": 3056,
      "rist": 3057,
      "rance": 3058,
      "rates": 3059,
      "tit": 3060,
      "tall": 3061,
      "van": 3062,
      "vine": 3063,
      "vous": 3064,
      "wer": 3065,
      "wat": 3066,
      "xed": 3067,
      "ya": 3068,
      "yoga": 3069,
      "zoo": 3070,
      "ined": 3071,
      "inion": 3072,
      "income": 3073,
      "anic": 3074,
      "younger": 3075,
      "replace": 3076,
      "result": 3077,
      "toes": 3078,
      "separ": 3079,
      "seventy": 3080,
      "stile": 3081,
      "habits": 3082,
      "chill": 3083,
      "ences": 3084,
      "etc": 3085,
      "becoming": 3086,
      "belt": 3087,
      "ghurt": 3088,
      "oned": 3089,
      "Itali": 3090,
      "liked": 3091,
      "coke": 3092,
      "outdoor": 3093,
      "adult": 3094,
      "Thirty": 3095,
      "tire": 3096,
      "rodu": 3097,
      "ident": 3098,
      "ambulance": 3099,
      "thered": 3100,
      "hip": 3101,
      "urgent": 3102,
      "butter": 3103,
      "button": 3104,
      "major": 3105,
      "appoint": 3106,
      "whatever": 3107,
      "que": 3108,
      "quit": 3109,
      "quart": 3110,
      "safe": 3111,
      "hop": 3112,
      "baker": 3113,
      "comb": 3114,
      "postage": 3115,
      "carats": 3116,
      "umb": 3117,
      "umin": 3118,
      "worn": 3119,
      "divid": 3120,
      "bother": 3121,
      "boiled": 3122,
      "bothered": 3123,
      "typic": 3124,
      "cast": 3125,
      "harm": 3126,
      "trains": 3127,
      "travel": 3128,
      "opinion": 3129,
      "activ": 3130,
      "luck": 3131,
      "shake": 3132,
      "Remember": 3133,
      "nervous": 3134,
      "specialties": 3135,
      "turnstile": 3136,
      "keeps": 3137,
      "keeping": 3138,
      "More": 3139,
      "grad": 3140,
      "Stone": 3141,
      "biggest": 3142,
      "cuts": 3143,
      "introdu": 3144,
      "descri": 3145,
      "choices": 3146,
      "mission": 3147,
      "smaller": 3148,
      "teacher": 3149,
      "latte": 3150,
      "subscri": 3151,
      "answer": 3152,
      "dogs": 3153,
      "standard": 3154,
      "lessons": 3155,
      "parts": 3156,
      "bills": 3157,
      "surf": 3158,
      "including": 3159,
      "elevator": 3160,
      "strange": 3161,
      "eighty": 3162,
      "shirts": 3163,
      "warm": 3164,
      "energy": 3165,
      "fashioned": 3166,
      "advise": 3167,
      "landsca": 3168,
      "landlord": 3169,
      "swim": 3170,
      "rolls": 3171,
      "planning": 3172,
      "learned": 3173,
      "pressure": 3174,
      "Unleaded": 3175,
      "noticed": 3176,
      "designed": 3177,
      "mountains": 3178,
      "whether": 3179,
      "attend": 3180,
      "moisturize": 3181,
      "block": 3182,
      "cycle": 3183,
      "chopsticks": 3184,
      "prints": 3185,
      "graph": 3186,
      "appli": 3187,
      "appear": 3188,
      "---": 3189,
      "install": 3190,
      "switch": 3191,
      "changed": 3192,
      "satis": 3193,
      "scratch": 3194,
      "animals": 3195,
      "walking": 3196,
      "increase": 3197,
      "balanced": 3198,
      "selection": 3199,
      "heels": 3200,
      "extremely": 3201,
      "aisle": 3202,
      "atives": 3203,
      "memory": 3204,
      "dancing": 3205,
      "reliable": 3206,
      "stroke": 3207,
      "performance": 3208,
      "elegant": 3209,
      "Japan": 3210,
      "Medium": 3211,
      "Sharon": 3212,
      "ristmas": 3213,
      "vinegar": 3214,
      "Italian": 3215,
      "appointment": 3216,
      "landscape": 3217,
      "65": 3218,
      "90": 3219,
      "Bat": 3220,
      "Da": 3221,
      "El": 3222,
      "East": 3223,
      "Each": 3224,
      "Fif": 3225,
      "Ge": 3226,
      "Ho": 3227,
      "Hold": 3228,
      "Mc": 3229,
      "Pet": 3230,
      "Sam": 3231,
      "Tru": 3232,
      "Twenty": 3233,
      "Zhang": 3234,
      "blow": 3235,
      "bster": 3236,
      "cine": 3237,
      "cros": 3238,
      "dust": 3239,
      "double": 3240,
      "ek": 3241,
      "fice": 3242,
      "gall": 3243,
      "hus": 3244,
      "knew": 3245,
      "lam": 3246,
      "pat": 3247,
      "pant": 3248,
      "phi": 3249,
      "pine": 3250,
      "snow": 3251,
      "spo": 3252,
      "slip": 3253,
      "tally": 3254,
      "tough": 3255,
      "uh": 3256,
      "vase": 3257,
      "vio": 3258,
      "wing": 3259,
      "ony": 3260,
      "invit": 3261,
      "ancient": 3262,
      "rel": 3263,
      "relat": 3264,
      "totally": 3265,
      "istic": 3266,
      "seum": 3267,
      "aries": 3268,
      "heat": 3269,
      "ays": 3270,
      "become": 3271,
      "alo": 3272,
      "aling": 3273,
      "arest": 3274,
      "wild": 3275,
      "asleep": 3276,
      "cop": 3277,
      "copies": 3278,
      "adays": 3279,
      "nearest": 3280,
      "tial": 3281,
      "shor": 3282,
      "shrink": 3283,
      "somewhere": 3284,
      "museum": 3285,
      "moves": 3286,
      "load": 3287,
      "ife": 3288,
      "indy": 3289,
      "sick": 3290,
      "bleeding": 3291,
      "explain": 3292,
      "ical": 3293,
      "useful": 3294,
      "ulous": 3295,
      "ulty": 3296,
      "bage": 3297,
      "commer": 3298,
      "illa": 3299,
      "pol": 3300,
      "polic": 3301,
      "item": 3302,
      "helped": 3303,
      "nobody": 3304,
      "conne": 3305,
      "worried": 3306,
      "plant": 3307,
      "women": 3308,
      "tension": 3309,
      "types": 3310,
      "spec": 3311,
      "specially": 3312,
      "opard": 3313,
      "according": 3314,
      "eaten": 3315,
      "Excellent": 3316,
      "interview": 3317,
      "due": 3318,
      "badly": 3319,
      "formal": 3320,
      "display": 3321,
      "earrings": 3322,
      "Taxi": 3323,
      "salt": 3324,
      "produce": 3325,
      "wondering": 3326,
      "mp4": 3327,
      "xible": 3328,
      "cris": 3329,
      "crab": 3330,
      "cranes": 3331,
      "push": 3332,
      "Liu": 3333,
      "learning": 3334,
      "automatic": 3335,
      "regularly": 3336,
      "purple": 3337,
      "fifteen": 3338,
      "valu": 3339,
      "boring": 3340,
      "understanding": 3341,
      "nuts": 3342,
      "smoke": 3343,
      "wrapped": 3344,
      "quicker": 3345,
      "beginning": 3346,
      "student": 3347,
      "direct": 3348,
      "documents": 3349,
      "decide": 3350,
      "browsing": 3351,
      "craft": 3352,
      "Taiwan": 3353,
      "magazines": 3354,
      "casual": 3355,
      "distance": 3356,
      "further": 3357,
      "video": 3358,
      "coupons": 3359,
      "Pardon": 3360,
      "bowl": 3361,
      "Internet": 3362,
      "welve": 3363,
      "flavor": 3364,
      "sandwich": 3365,
      "touch": 3366,
      "suddenly": 3367,
      "vacuum": 3368,
      "flexible": 3369,
      "piano": 3370,
      "Better": 3371,
      "finitely": 3372,
      "completely": 3373,
      "Jenny": 3374,
      "Batwoman": 3375,
      "True": 3376,
      "husband": 3377,
      "pattern": 3378,
      "policy": 3379,
      "11": 3380,
      "14": 3381,
      "150": 3382,
      "213": 3383,
      "350": 3384,
      "367": 3385,
      "84": 3386,
      "87": 3387,
      "800": 3388,
      "AM": 3389,
      "Bus": 3390,
      "Broad": 3391,
      "Block": 3392,
      "Chen": 3393,
      "Dick": 3394,
      "Even": 3395,
      "Fin": 3396,
      "Hang": 3397,
      "IK": 3398,
      "Kau": 3399,
      "Lin": 3400,
      "Man": 3401,
      "Mart": 3402,
      "Pay": 3403,
      "Res": 3404,
      "Ste": 3405,
      "Sue": 3406,
      "Since": 3407,
      "Wu": 3408,
      "Wor": 3409,
      "Yep": 3410,
      "York": 3411,
      "aer": 3412,
      "ached": 3413,
      "bik": 3414,
      "chat": 3415,
      "cation": 3416,
      "cru": 3417,
      "dr": 3418,
      "dic": 3419,
      "dough": 3420,
      "ection": 3421,
      "fto": 3422,
      "fly": 3423,
      "fman": 3424,
      "ghe": 3425,
      "glo": 3426,
      "gloves": 3427,
      "hou": 3428,
      "ips": 3429,
      "ials": 3430,
      "junk": 3431,
      "kne": 3432,
      "kno": 3433,
      "lust": 3434,
      "mit": 3435,
      "mood": 3436,
      "mill": 3437,
      "nation": 3438,
      "ome": 3439,
      "pus": 3440,
      "rot": 3441,
      "rank": 3442,
      "rise": 3443,
      "sink": 3444,
      "sam": 3445,
      "shar": 3446,
      "slim": 3447,
      "teah": 3448,
      "tgage": 3449,
      "ucky": 3450,
      "vi": 3451,
      "vases": 3452,
      "win": 3453,
      "ying": 3454,
      "zard": 3455,
      "zhou": 3456,
      "onna": 3457,
      "oubles": 3458,
      "inv": 3459,
      "ana": 3460,
      "ann": 3461,
      "reno": 3462,
      "reach": 3463,
      "token": 3464,
      "lly": 3465,
      "itical": 3466,
      "ision": 3467,
      "ories": 3468,
      "vents": 3469,
      "led": 3470,
      "lex": 3471,
      "lemon": 3472,
      "level": 3473,
      "lefto": 3474,
      "ower": 3475,
      "ooth": 3476,
      "ooting": 3477,
      "lives": 3478,
      "library": 3479,
      "lizard": 3480,
      "forms": 3481,
      "chest": 3482,
      "chili": 3483,
      "china": 3484,
      "soli": 3485,
      "uty": 3486,
      "rip": 3487,
      "river": 3488,
      "webs": 3489,
      "covers": 3490,
      "cancer": 3491,
      "ney": 3492,
      "Whatever": 3493,
      "rop": 3494,
      "robber": 3495,
      "shot": 3496,
      "shrimp": 3497,
      "shield": 3498,
      "Their": 3499,
      "amboo": 3500,
      "suc": 3501,
      "sured": 3502,
      "mush": 3503,
      "motor": 3504,
      "bub": 3505,
      "raz": 3506,
      "rage": 3507,
      "loan": 3508,
      "location": 3509,
      "indeed": 3510,
      "sib": 3511,
      "butcher": 3512,
      "exp": 3513,
      "excuse": 3514,
      "entrance": 3515,
      "ics": 3516,
      "icure": 3517,
      "apers": 3518,
      "ulations": 3519,
      "tood": 3520,
      "hobby": 3521,
      "ilk": 3522,
      "elf": 3523,
      "proper": 3524,
      "units": 3525,
      "unusual": 3526,
      "bacon": 3527,
      "comer": 3528,
      "common": 3529,
      "washer": 3530,
      "chef": 3531,
      "checked": 3532,
      "fax": 3533,
      "fail": 3534,
      "worse": 3535,
      "plans": 3536,
      "derful": 3537,
      "reduce": 3538,
      "Christmas": 3539,
      "miner": 3540,
      "mortgage": 3541,
      "newsp": 3542,
      "premium": 3543,
      "action": 3544,
      "acces": 3545,
      "troubles": 3546,
      "couch": 3547,
      "finding": 3548,
      "workout": 3549,
      "showing": 3550,
      "Exerc": 3551,
      "ists": 3552,
      "shades": 3553,
      "shaped": 3554,
      "steep": 3555,
      "stopped": 3556,
      "foreign": 3557,
      "Office": 3558,
      "household": 3559,
      "central": 3560,
      "delicate": 3561,
      "homework": 3562,
      "smooth": 3563,
      "sitive": 3564,
      "drivers": 3565,
      "group": 3566,
      "tonic": 3567,
      "manicure": 3568,
      "brings": 3569,
      "charges": 3570,
      "stuck": 3571,
      "starters": 3572,
      "renting": 3573,
      "trip": 3574,
      "Didn": 3575,
      "earn": 3576,
      "curry": 3577,
      "sales": 3578,
      "talked": 3579,
      "mixed": 3580,
      "dishwasher": 3581,
      "critical": 3582,
      "restaurants": 3583,
      "standing": 3584,
      "broid": 3585,
      "tickets": 3586,
      "happens": 3587,
      "filet": 3588,
      "supp": 3589,
      "Something": 3590,
      "fares": 3591,
      "burgers": 3592,
      "aud": 3593,
      "vegetable": 3594,
      "returns": 3595,
      "returning": 3596,
      "promotion": 3597,
      "slee": 3598,
      "smells": 3599,
      "weekends": 3600,
      "Americans": 3601,
      "kilogram": 3602,
      "ject": 3603,
      "imported": 3604,
      "collar": 3605,
      "brake": 3606,
      "eyebrows": 3607,
      "keys": 3608,
      "fixed": 3609,
      "silver": 3610,
      "alize": 3611,
      "777": 3612,
      "campus": 3613,
      "colours": 3614,
      "legal": 3615,
      "electric": 3616,
      "screw": 3617,
      "decision": 3618,
      "opera": 3619,
      "bunch": 3620,
      "apply": 3621,
      "tailor": 3622,
      "responsible": 3623,
      "responsib": 3624,
      "falling": 3625,
      "embroid": 3626,
      "general": 3627,
      "generally": 3628,
      "photograph": 3629,
      "excited": 3630,
      "studio": 3631,
      "nutrition": 3632,
      "Seventy": 3633,
      "darker": 3634,
      "mileage": 3635,
      "damage": 3636,
      "equipment": 3637,
      "cigarette": 3638,
      "cigarettes": 3639,
      "scene": 3640,
      "liquors": 3641,
      "nails": 3642,
      "audiences": 3643,
      "Kentucky": 3644,
      "circul": 3645,
      "detail": 3646,
      "lasag": 3647,
      "processing": 3648,
      "gentleman": 3649,
      "fragrant": 3650,
      "Wonderful": 3651,
      "football": 3652,
      "mutton": 3653,
      "theatre": 3654,
      "shoe": 3655,
      "yoghurt": 3656,
      "selves": 3657,
      "advertise": 3658,
      "exception": 3659,
      "sheets": 3660,
      "cleansers": 3661,
      "Generally": 3662,
      "article": 3663,
      "services": 3664,
      "continental": 3665,
      "entertainment": 3666,
      "Heather": 3667,
      "watched": 3668,
      "results": 3669,
      "separate": 3670,
      "combination": 3671,
      "divided": 3672,
      "typical": 3673,
      "activities": 3674,
      "crossing": 3675,
      "2135": 3676,
      "Broadway": 3677,
      "IKE": 3678,
      "Kaufman": 3679,
      "aerob": 3680,
      "bikini": 3681,
      "drama": 3682,
      "diction": 3683,
      "million": 3684,
      "website": 3685,
      "robbery": 3686,
      "64": 3687,
      "99": 3688,
      "AT": 3689,
      "Am": 3690,
      "Au": 3691,
      "Bill": 3692,
      "Black": 3693,
      "CD": 3694,
      "Cook": 3695,
      "Char": 3696,
      "Cindy": 3697,
      "Day": 3698,
      "Ed": 3699,
      "Er": 3700,
      "Grand": 3701,
      "Ice": 3702,
      "Jack": 3703,
      "MB": 3704,
      "Mm": 3705,
      "Muse": 3706,
      "Paper": 3707,
      "Play": 3708,
      "Rail": 3709,
      "Ter": 3710,
      "Too": 3711,
      "Use": 3712,
      "Usu": 3713,
      "VI": 3714,
      "Watch": 3715,
      "ake": 3716,
      "bri": 3717,
      "bound": 3718,
      "bones": 3719,
      "cow": 3720,
      "dres": 3721,
      "drun": 3722,
      "emer": 3723,
      "fab": 3724,
      "fus": 3725,
      "fond": 3726,
      "finger": 3727,
      "gate": 3728,
      "grow": 3729,
      "hous": 3730,
      "houses": 3731,
      "jade": 3732,
      "jump": 3733,
      "loose": 3734,
      "pin": 3735,
      "rang": 3736,
      "sli": 3737,
      "shave": 3738,
      "ters": 3739,
      "tur": 3740,
      "tree": 3741,
      "twelve": 3742,
      "ui": 3743,
      "uction": 3744,
      "vou": 3745,
      "vate": 3746,
      "wrink": 3747,
      "western": 3748,
      "thor": 3749,
      "infor": 3750,
      "inser": 3751,
      "antic": 3752,
      "theater": 3753,
      "lent": 3754,
      "leopard": 3755,
      "aro": 3756,
      "argu": 3757,
      "artic": 3758,
      "arms": 3759,
      "arian": 3760,
      "hats": 3761,
      "bey": 3762,
      "bear": 3763,
      "riding": 3764,
      "associ": 3765,
      "otic": 3766,
      "Its": 3767,
      "tao": 3768,
      "taurant": 3769,
      "editions": 3770,
      "outfit": 3771,
      "Those": 3772,
      "ability": 3773,
      "rock": 3774,
      "rocks": 3775,
      "antly": 3776,
      "god": 3777,
      "sung": 3778,
      "mum": 3779,
      "moving": 3780,
      "bucks": 3781,
      "raft": 3782,
      "losing": 3783,
      "lobster": 3784,
      "definitely": 3785,
      "exotic": 3786,
      "provide": 3787,
      "baked": 3788,
      "compre": 3789,
      "cies": 3790,
      "helps": 3791,
      "helping": 3792,
      "noise": 3793,
      "pence": 3794,
      "hensive": 3795,
      "page": 3796,
      "paste": 3797,
      "dip": 3798,
      "plate": 3799,
      "reduction": 3800,
      "Chris": 3801,
      "caught": 3802,
      "court": 3803,
      "irsty": 3804,
      "active": 3805,
      "arden": 3806,
      "trunk": 3807,
      "ending": 3808,
      "closed": 3809,
      "Ange": 3810,
      "showed": 3811,
      "waitress": 3812,
      "skills": 3813,
      "paring": 3814,
      "rowave": 3815,
      "turned": 3816,
      "singer": 3817,
      "grand": 3818,
      "Star": 3819,
      "beach": 3820,
      "hands": 3821,
      "marked": 3822,
      "martial": 3823,
      "vory": 3824,
      "suitcase": 3825,
      "Coming": 3826,
      "Believe": 3827,
      "finally": 3828,
      "finale": 3829,
      "High": 3830,
      "curfew": 3831,
      "wearing": 3832,
      "picnic": 3833,
      "staying": 3834,
      "stayed": 3835,
      "posters": 3836,
      "surpr": 3837,
      "Malia": 3838,
      "stranger": 3839,
      "burgl": 3840,
      "position": 3841,
      "vegetarian": 3842,
      "perfectly": 3843,
      "fifth": 3844,
      "wards": 3845,
      "trend": 3846,
      "gifts": 3847,
      "blush": 3848,
      "borrow": 3849,
      "wallet": 3850,
      "models": 3851,
      "listening": 3852,
      "terrific": 3853,
      "conditioning": 3854,
      "wheel": 3855,
      "huh": 3856,
      "meeting": 3857,
      "durable": 3858,
      "legs": 3859,
      "considered": 3860,
      "bungee": 3861,
      "appealing": 3862,
      "balcon": 3863,
      "Airport": 3864,
      "booth": 3865,
      "photos": 3866,
      "considering": 3867,
      "lenses": 3868,
      "changing": 3869,
      "advantage": 3870,
      "Mummy": 3871,
      "ceremony": 3872,
      "animal": 3873,
      "raining": 3874,
      "International": 3875,
      "sweaters": 3876,
      "liquor": 3877,
      "features": 3878,
      "prepared": 3879,
      "truth": 3880,
      "truck": 3881,
      "breath": 3882,
      "audience": 3883,
      "practical": 3884,
      "intend": 3885,
      "starving": 3886,
      "decorate": 3887,
      "breasted": 3888,
      "banquet": 3889,
      "records": 3890,
      "families": 3891,
      "Baker": 3892,
      "Boy": 3893,
      "microwave": 3894,
      "murder": 3895,
      "complicated": 3896,
      "Sixty": 3897,
      "loud": 3898,
      "vanilla": 3899,
      "George": 3900,
      "gallons": 3901,
      "lamb": 3902,
      "polish": 3903,
      "Restaurant": 3904,
      "bubble": 3905,
      "ATM": 3906,
      "Museum": 3907,
      "Railway": 3908,
      "Usually": 3909,
      "dressed": 3910,
      "housing": 3911,
      "voucher": 3912,
      "insert": 3913,
      "articles": 3914,
      "comprehensive": 3915,
      "0n": 3916,
      "119": 3917,
      "275": 3918,
      "360": 3919,
      "42": 3920,
      "423": 3921,
      "68": 3922,
      "700": 3923,
      "81": 3924,
      "88": 3925,
      "Bu": 3926,
      "Big": 3927,
      "Braz": 3928,
      "Cong": 3929,
      "DV": 3930,
      "Doff": 3931,
      "Darling": 3932,
      "Drop": 3933,
      "Eric": 3934,
      "Fu": 3935,
      "Got": 3936,
      "Hal": 3937,
      "Hong": 3938,
      "IB": 3939,
      "II": 3940,
      "Ken": 3941,
      "LP": 3942,
      "Los": 3943,
      "MS": 3944,
      "Mor": 3945,
      "Ni": 3946,
      "Nice": 3947,
      "National": 3948,
      "PG": 3949,
      "Pure": 3950,
      "Power": 3951,
      "Sto": 3952,
      "Sound": 3953,
      "Stra": 3954,
      "Spr": 3955,
      "Sleep": 3956,
      "Ting": 3957,
      "Tas": 3958,
      "Twice": 3959,
      "Wo": 3960,
      "Yup": 3961,
      "bamboo": 3962,
      "caf": 3963,
      "cus": 3964,
      "chas": 3965,
      "cumber": 3966,
      "cross": 3967,
      "dered": 3968,
      "duty": 3969,
      "ey": 3970,
      "eld": 3971,
      "ege": 3972,
      "ears": 3973,
      "epend": 3974,
      "fas": 3975,
      "fles": 3976,
      "flu": 3977,
      "fade": 3978,
      "ging": 3979,
      "ginger": 3980,
      "guts": 3981,
      "gonna": 3982,
      "iers": 3983,
      "ied": 3984,
      "iam": 3985,
      "ient": 3986,
      "jell": 3987,
      "jades": 3988,
      "kn": 3989,
      "kery": 3990,
      "lus": 3991,
      "mere": 3992,
      "mand": 3993,
      "ni": 3994,
      "nis": 3995,
      "nes": 3996,
      "nch": 3997,
      "none": 3998,
      "nine": 3999,
      "num": 4000,
      "nces": 4001,
      "nature": 4002,
      "national": 4003,
      "oll": 4004,
      "oons": 4005,
      "pal": 4006,
      "pup": 4007,
      "pong": 4008,
      "patch": 4009,
      "pitch": 4010,
      "rat": 4011,
      "rust": 4012,
      "sou": 4013,
      "spl": 4014,
      "sang": 4015,
      "scent": 4016,
      "ssy": 4017,
      "stood": 4018,
      "ts": 4019,
      "tti": 4020,
      "ude": 4021,
      "vour": 4022,
      "vated": 4023,
      "whis": 4024,
      "zz": 4025,
      "errand": 4026,
      "init": 4027,
      "ining": 4028,
      "inspe": 4029,
      "intell": 4030,
      "inety": 4031,
      "invol": 4032,
      "anch": 4033,
      "anel": 4034,
      "anuts": 4035,
      "rew": 4036,
      "reed": 4037,
      "repe": 4038,
      "recre": 4039,
      "remove": 4040,
      "reached": 4041,
      "realize": 4042,
      "rebound": 4043,
      "atus": 4044,
      "itself": 4045,
      "itious": 4046,
      "isy": 4047,
      "isten": 4048,
      "org": 4049,
      "orna": 4050,
      "ession": 4051,
      "vend": 4052,
      "leng": 4053,
      "stal": 4054,
      "stir": 4055,
      "stink": 4056,
      "staf": 4057,
      "kebab": 4058,
      "hew": 4059,
      "hell": 4060,
      "held": 4061,
      "heating": 4062,
      "erence": 4063,
      "erences": 4064,
      "lift": 4065,
      "fork": 4066,
      "envelo": 4067,
      "beers": 4068,
      "alter": 4069,
      "alarm": 4070,
      "alumin": 4071,
      "socks": 4072,
      "soya": 4073,
      "ripe": 4074,
      "ced": 4075,
      "ashed": 4076,
      "otes": 4077,
      "tai": 4078,
      "likely": 4079,
      "cola": 4080,
      "coaster": 4081,
      "verage": 4082,
      "outlet": 4083,
      "ady": 4084,
      "nder": 4085,
      "neither": 4086,
      "Things": 4087,
      "Third": 4088,
      "plement": 4089,
      "tie": 4090,
      "till": 4091,
      "above": 4092,
      "rope": 4093,
      "ids": 4094,
      "shout": 4095,
      "shooting": 4096,
      "somebody": 4097,
      "amble": 4098,
      "mul": 4099,
      "mus": 4100,
      "getic": 4101,
      "buff": 4102,
      "rack": 4103,
      "peel": 4104,
      "peanuts": 4105,
      "gel": 4106,
      "ific": 4107,
      "uring": 4108,
      "independ": 4109,
      "sic": 4110,
      "silly": 4111,
      "def": 4112,
      "degre": 4113,
      "butt": 4114,
      "fear": 4115,
      "feeding": 4116,
      "seeing": 4117,
      "thern": 4118,
      "appro": 4119,
      "sake": 4120,
      "savor": 4121,
      "saved": 4122,
      "hose": 4123,
      "hole": 4124,
      "hoping": 4125,
      "estly": 4126,
      "ongsh": 4127,
      "unless": 4128,
      "bac": 4129,
      "baking": 4130,
      "bakery": 4131,
      "commission": 4132,
      "poor": 4133,
      "carrot": 4134,
      "resid": 4135,
      "resist": 4136,
      "shoulders": 4137,
      "noisy": 4138,
      "pens": 4139,
      "Surely": 4140,
      "venirs": 4141,
      "const": 4142,
      "consu": 4143,
      "pace": 4144,
      "painter": 4145,
      "packed": 4146,
      "die": 4147,
      "dium": 4148,
      "plot": 4149,
      "plug": 4150,
      "perhaps": 4151,
      "tenth": 4152,
      "tenant": 4153,
      "tennis": 4154,
      "Chanel": 4155,
      "spell": 4156,
      "mini": 4157,
      "minal": 4158,
      "buses": 4159,
      "payment": 4160,
      "newly": 4161,
      "newcomer": 4162,
      "pref": 4163,
      "preten": 4164,
      "precious": 4165,
      "track": 4166,
      "lotion": 4167,
      "tells": 4168,
      "surely": 4169,
      "Goodbye": 4170,
      "nasty": 4171,
      "trust": 4172,
      "cials": 4173,
      "wellery": 4174,
      "guy": 4175,
      "guide": 4176,
      "hero": 4177,
      "ketch": 4178,
      "Express": 4179,
      "lesale": 4180,
      "sheer": 4181,
      "steal": 4182,
      "steam": 4183,
      "stewed": 4184,
      "skate": 4185,
      "himself": 4186,
      "spray": 4187,
      "imbo": 4188,
      "monthly": 4189,
      "specials": 4190,
      "interior": 4191,
      "international": 4192,
      "phones": 4193,
      "rug": 4194,
      "ffy": 4195,
      "caused": 4196,
      "dull": 4197,
      "lowest": 4198,
      "grown": 4199,
      "wholesale": 4200,
      "Stea": 4201,
      "corn": 4202,
      "William": 4203,
      "expenses": 4204,
      "beauties": 4205,
      "ferris": 4206,
      "charming": 4207,
      "charged": 4208,
      "marvel": 4209,
      "mess": 4210,
      "sending": 4211,
      "tricks": 4212,
      "cholas": 4213,
      "although": 4214,
      "history": 4215,
      "pairs": 4216,
      "weights": 4217,
      "Tomorrow": 4218,
      "diets": 4219,
      "cucumber": 4220,
      "finest": 4221,
      "curd": 4222,
      "nearly": 4223,
      "salary": 4224,
      "schools": 4225,
      "popularity": 4226,
      "aged": 4227,
      "movements": 4228,
      "postcard": 4229,
      "garlic": 4230,
      "broc": 4231,
      "opened": 4232,
      "fied": 4233,
      "supplement": 4234,
      "senior": 4235,
      "sengers": 4236,
      "sensitive": 4237,
      "Liang": 4238,
      "strate": 4239,
      "eteria": 4240,
      "burn": 4241,
      "spending": 4242,
      "parent": 4243,
      "returned": 4244,
      "signal": 4245,
      "poses": 4246,
      "purchas": 4247,
      "slender": 4248,
      "energetic": 4249,
      "packages": 4250,
      "Everyone": 4251,
      "Everybody": 4252,
      "wns": 4253,
      "customs": 4254,
      "files": 4255,
      "kilometer": 4256,
      "kilometers": 4257,
      "jewellery": 4258,
      "enjoyed": 4259,
      "orders": 4260,
      "college": 4261,
      "Roast": 4262,
      "Rolex": 4263,
      "tomatoes": 4264,
      "arriving": 4265,
      "roller": 4266,
      "musical": 4267,
      "balloons": 4268,
      "visitor": 4269,
      "Without": 4270,
      "modem": 4271,
      "classes": 4272,
      "designs": 4273,
      "July": 4274,
      "catching": 4275,
      "followed": 4276,
      "guests": 4277,
      "affordable": 4278,
      "beginner": 4279,
      "huge": 4280,
      "treated": 4281,
      "questions": 4282,
      "ceries": 4283,
      "cloths": 4284,
      "Mostly": 4285,
      "expert": 4286,
      "particularly": 4287,
      "drove": 4288,
      "materials": 4289,
      "operas": 4290,
      "buns": 4291,
      "painted": 4292,
      "Showing": 4293,
      "stamp": 4294,
      "basic": 4295,
      "response": 4296,
      "distin": 4297,
      "killed": 4298,
      "tub": 4299,
      "tune": 4300,
      "joined": 4301,
      "nutritious": 4302,
      "Marry": 4303,
      "Maria": 4304,
      "vacation": 4305,
      "Second": 4306,
      "passengers": 4307,
      "satin": 4308,
      "scramble": 4309,
      "repairs": 4310,
      "Paris": 4311,
      "pencils": 4312,
      "factory": 4313,
      "climbing": 4314,
      "Guiling": 4315,
      "walked": 4316,
      "attack": 4317,
      "attached": 4318,
      "pullovers": 4319,
      "Depend": 4320,
      "Luo": 4321,
      "reminder": 4322,
      "society": 4323,
      "profession": 4324,
      "strict": 4325,
      "moisturizer": 4326,
      "moisturizers": 4327,
      "fragrance": 4328,
      "banana": 4329,
      "crystal": 4330,
      "familiar": 4331,
      "bracelets": 4332,
      "original": 4333,
      "awful": 4334,
      "groceries": 4335,
      "beancurd": 4336,
      "brushes": 4337,
      "impressive": 4338,
      "teeth": 4339,
      "Coroll": 4340,
      "clips": 4341,
      "frozen": 4342,
      "Department": 4343,
      "Northern": 4344,
      "Speaking": 4345,
      "blah": 4346,
      "cinating": 4347,
      "candy": 4348,
      "chairs": 4349,
      "imag": 4350,
      "quarters": 4351,
      "hopping": 4352,
      "traveler": 4353,
      "gradu": 4354,
      "introduce": 4355,
      "describe": 4356,
      "appliances": 4357,
      "Hope": 4358,
      "panty": 4359,
      "alog": 4360,
      "shorter": 4361,
      "specific": 4362,
      "valuable": 4363,
      "3678": 4364,
      "Finally": 4365,
      "World": 4366,
      "chatting": 4367,
      "cruise": 4368,
      "ghetti": 4369,
      "glossy": 4370,
      "knees": 4371,
      "sharing": 4372,
      "renovated": 4373,
      "ripped": 4374,
      "shrimps": 4375,
      "success": 4376,
      "motorcycle": 4377,
      "reduced": 4378,
      "accessible": 4379,
      "troublesome": 4380,
      "Exercise": 4381,
      "audition": 4382,
      "details": 4383,
      "advertisement": 4384,
      "IKEA": 4385,
      "emergen": 4386,
      "thorough": 4387,
      "Angeles": 4388,
      "Congrat": 4389,
      "DVD": 4390,
      "LPF": 4391,
      "Nicholas": 4392,
      "Store": 4393,
      "Sprite": 4394,
      "Tasha": 4395,
      "cafeteria": 4396,
      "fascinating": 4397,
      "numbers": 4398,
      "souvenirs": 4399,
      "split": 4400,
      "errands": 4401,
      "repeat": 4402,
      "recreation": 4403,
      "staff": 4404,
      "envelopes": 4405,
      "independent": 4406,
      "degrees": 4407,
      "marvelous": 4408,
      "visitors": 4409,
      "scrambled": 4410,
      "Congratulations": 4411,
      "1st": 4412,
      "26": 4413,
      "29": 4414,
      "41": 4415,
      "86": 4416,
      "Amy": 4417,
      "Ano": 4418,
      "Alice": 4419,
      "Bing": 4420,
      "Bri": 4421,
      "Bun": 4422,
      "Back": 4423,
      "Con": 4424,
      "Dan": 4425,
      "Dam": 4426,
      "Dig": 4427,
      "Gold": 4428,
      "Glad": 4429,
      "Hen": 4430,
      "Has": 4431,
      "Hap": 4432,
      "Je": 4433,
      "Jin": 4434,
      "Kung": 4435,
      "Lind": 4436,
      "Lea": 4437,
      "Long": 4438,
      "Lau": 4439,
      "Listen": 4440,
      "MP": 4441,
      "Mat": 4442,
      "Mex": 4443,
      "Out": 4444,
      "Other": 4445,
      "Pa": 4446,
      "Pr": 4447,
      "Pu": 4448,
      "Pot": 4449,
      "Pro": 4450,
      "Pass": 4451,
      "RAM": 4452,
      "RIB": 4453,
      "San": 4454,
      "Sing": 4455,
      "Shi": 4456,
      "Tsing": 4457,
      "Wood": 4458,
      "Wil": 4459,
      "Warri": 4460,
      "Year": 4461,
      "ath": 4462,
      "ald": 4463,
      "ace": 4464,
      "aven": 4465,
      "bon": 4466,
      "bin": 4467,
      "bid": 4468,
      "broo": 4469,
      "bile": 4470,
      "cable": 4471,
      "clar": 4472,
      "cery": 4473,
      "gin": 4474,
      "garden": 4475,
      "iing": 4476,
      "ilet": 4477,
      "iquet": 4478,
      "ivory": 4479,
      "moun": 4480,
      "mouth": 4481,
      "odi": 4482,
      "pans": 4483,
      "pills": 4484,
      "papers": 4485,
      "rating": 4486,
      "sest": 4487,
      "sides": 4488,
      "tw": 4489,
      "uation": 4490,
      "ucated": 4491,
      "wet": 4492,
      "wave": 4493,
      "wast": 4494,
      "xion": 4495,
      "zer": 4496,
      "erful": 4497,
      "ersection": 4498,
      "thirsty": 4499,
      "inner": 4500,
      "inconvenience": 4501,
      "anle": 4502,
      "toilet": 4503,
      "lling": 4504,
      "isco": 4505,
      "esti": 4506,
      "stret": 4507,
      "keen": 4508,
      "arch": 4509,
      "arrang": 4510,
      "heaven": 4511,
      "fort": 4512,
      "etiquet": 4513,
      "beat": 4514,
      "belie": 4515,
      "ared": 4516,
      "cels": 4517,
      "tape": 4518,
      "taine": 4519,
      "talent": 4520,
      "educ": 4521,
      "educated": 4522,
      "cozy": 4523,
      "covered": 4524,
      "canned": 4525,
      "Thousand": 4526,
      "tip": 4527,
      "tici": 4528,
      "tips": 4529,
      "idic": 4530,
      "shui": 4531,
      "anting": 4532,
      "suck": 4533,
      "suff": 4534,
      "mulat": 4535,
      "modest": 4536,
      "mobile": 4537,
      "anybody": 4538,
      "loso": 4539,
      "loads": 4540,
      "simil": 4541,
      "goodness": 4542,
      "knows": 4543,
      "apples": 4544,
      "ups": 4545,
      "hops": 4546,
      "unit": 4547,
      "unfair": 4548,
      "unately": 4549,
      "Island": 4550,
      "ived": 4551,
      "posed": 4552,
      "buyers": 4553,
      "stories": 4554,
      "helpful": 4555,
      "cheek": 4556,
      "cheerful": 4557,
      "conver": 4558,
      "contr": 4559,
      "concer": 4560,
      "Andy": 4561,
      "diale": 4562,
      "owner": 4563,
      "romantic": 4564,
      "bert": 4565,
      "cago": 4566,
      "pays": 4567,
      "preparing": 4568,
      "igner": 4569,
      "acidic": 4570,
      "trash": 4571,
      "Health": 4572,
      "priced": 4573,
      "download": 4574,
      "Allen": 4575,
      "closest": 4576,
      "clever": 4577,
      "skating": 4578,
      "skiing": 4579,
      "parcels": 4580,
      "partici": 4581,
      "foreigner": 4582,
      "immedi": 4583,
      "Donald": 4584,
      "housework": 4585,
      "dinning": 4586,
      "sman": 4587,
      "recommendation": 4588,
      "sings": 4589,
      "States": 4590,
      "Stanle": 4591,
      "icky": 4592,
      "handbag": 4593,
      "corpor": 4594,
      "manage": 4595,
      "highway": 4596,
      "intersection": 4597,
      "desc": 4598,
      "tries": 4599,
      "insist": 4600,
      "countries": 4601,
      "teach": 4602,
      "cleaned": 4603,
      "regis": 4604,
      "ashes": 4605,
      "ashing": 4606,
      "current": 4607,
      "Nowadays": 4608,
      "settle": 4609,
      "roads": 4610,
      "subject": 4611,
      "skinny": 4612,
      "cram": 4613,
      "lately": 4614,
      "garbage": 4615,
      "stands": 4616,
      "cling": 4617,
      "clam": 4618,
      "surger": 4619,
      "surround": 4620,
      "computers": 4621,
      "training": 4622,
      "Library": 4623,
      "Once": 4624,
      "purse": 4625,
      "shorts": 4626,
      "desserts": 4627,
      "holding": 4628,
      "giving": 4629,
      "ized": 4630,
      "Robert": 4631,
      "arrival": 4632,
      "brain": 4633,
      "139": 4634,
      "Until": 4635,
      "entering": 4636,
      "received": 4637,
      "accidents": 4638,
      "banking": 4639,
      "hua": 4640,
      "private": 4641,
      "matches": 4642,
      "difficulty": 4643,
      "operator": 4644,
      "Need": 4645,
      "midnight": 4646,
      "sunset": 4647,
      "quarre": 4648,
      "Hah": 4649,
      "Having": 4650,
      "developed": 4651,
      "complexion": 4652,
      "tube": 4653,
      "requires": 4654,
      "confused": 4655,
      "swing": 4656,
      "Brit": 4657,
      "passed": 4658,
      "potato": 4659,
      "History": 4660,
      "cereal": 4661,
      "recipes": 4662,
      "hospit": 4663,
      "contrast": 4664,
      "facilities": 4665,
      "ficial": 4666,
      "slowly": 4667,
      "breathing": 4668,
      "flour": 4669,
      "niece": 4670,
      "secrets": 4671,
      "Chicago": 4672,
      "Tiananmen": 4673,
      "theaters": 4674,
      "Bakery": 4675,
      "grocery": 4676,
      "impression": 4677,
      "Art": 4678,
      "click": 4679,
      "linen": 4680,
      "notebook": 4681,
      "toothpaste": 4682,
      "transport": 4683,
      "tempt": 4684,
      "protein": 4685,
      "Indeed": 4686,
      "empty": 4687,
      "satisfactory": 4688,
      "Elvis": 4689,
      "Fifth": 4690,
      "McDonald": 4691,
      "philoso": 4692,
      "violet": 4693,
      "inviting": 4694,
      "connected": 4695,
      "displays": 4696,
      "crisp": 4697,
      "crafts": 4698,
      "knocked": 4699,
      "announce": 4700,
      "newspaper": 4701,
      "circulation": 4702,
      "Playing": 4703,
      "VIP": 4704,
      "cowl": 4705,
      "drunk": 4706,
      "fabulous": 4707,
      "wrinkles": 4708,
      "aroma": 4709,
      "beyond": 4710,
      "balcony": 4711,
      "Morning": 4712,
      "constantly": 4713,
      "Another": 4714,
      "Bingo": 4715,
      "Brian": 4716,
      "Bungee": 4717,
      "Danshui": 4718,
      "Damn": 4719,
      "Henry": 4720,
      "Happy": 4721,
      "Linda": 4722,
      "Leave": 4723,
      "Laura": 4724,
      "Otherwise": 4725,
      "Pull": 4726,
      "Tsingtao": 4727,
      "brooch": 4728,
      "mountaine": 4729,
      "waste": 4730,
      "stretch": 4731,
      "arranged": 4732,
      "etiquette": 4733,
      "similar": 4734,
      "contrary": 4735,
      "dialed": 4736,
      "immediately": 4737,
      "Stanley": 4738,
      "mountaineering": 4739,
      "110": 4740,
      "177": 4741,
      "27": 4742,
      "28": 4743,
      "230": 4744,
      "260": 4745,
      "36": 4746,
      "3r": 4747,
      "345": 4748,
      "44": 4749,
      "56": 4750,
      "513": 4751,
      "7th": 4752,
      "95": 4753,
      "900": 4754,
      "Ad": 4755,
      "Ak": 4756,
      "Aust": 4757,
      "Asi": 4758,
      "Afri": 4759,
      "Adid": 4760,
      "Ask": 4761,
      "Aug": 4762,
      "Ber": 4763,
      "Bas": 4764,
      "Bir": 4765,
      "Book": 4766,
      "Bea": 4767,
      "Both": 4768,
      "Cs": 4769,
      "Cou": 4770,
      "Cap": 4771,
      "Cup": 4772,
      "Cel": 4773,
      "Cash": 4774,
      "Cool": 4775,
      "Count": 4776,
      "Cream": 4777,
      "Cats": 4778,
      "DD": 4779,
      "DJ": 4780,
      "Di": 4781,
      "Dy": 4782,
      "Dut": 4783,
      "Done": 4784,
      "Drink": 4785,
      "Dav": 4786,
      "Dian": 4787,
      "Driver": 4788,
      "Disco": 4789,
      "ET": 4790,
      "EU": 4791,
      "ETV": 4792,
      "Fro": 4793,
      "Food": 4794,
      "Fru": 4795,
      "Frank": 4796,
      "G3": 4797,
      "Ga": 4798,
      "Gi": 4799,
      "Gre": 4800,
      "Gir": 4801,
      "Gee": 4802,
      "Grant": 4803,
      "Har": 4804,
      "Ham": 4805,
      "Hil": 4806,
      "Huan": 4807,
      "Hop": 4808,
      "Huh": 4809,
      "IC": 4810,
      "Ja": 4811,
      "Kate": 4812,
      "Kod": 4813,
      "Lar": 4814,
      "Line": 4815,
      "Later": 4816,
      "Lao": 4817,
      "Love": 4818,
      "MI": 4819,
      "Mu": 4820,
      "Mout": 4821,
      "Mid": 4822,
      "Might": 4823,
      "Mag": 4824,
      "Milk": 4825,
      "MET": 4826,
      "NT": 4827,
      "Neither": 4828,
      "Nao": 4829,
      "Ori": 4830,
      "Oly": 4831,
      "PC": 4832,
      "Port": 4833,
      "Piz": 4834,
      "Plus": 4835,
      "Rad": 4836,
      "Rice": 4837,
      "Say": 4838,
      "Sour": 4839,
      "Shen": 4840,
      "Spa": 4841,
      "Sep": 4842,
      "Soup": 4843,
      "Same": 4844,
      "South": 4845,
      "Sony": 4846,
      "Silk": 4847,
      "Ty": 4848,
      "Tin": 4849,
      "Tang": 4850,
      "Train": 4851,
      "UV": 4852,
      "Um": 4853,
      "Vit": 4854,
      "Vicky": 4855,
      "Wr": 4856,
      "Was": 4857,
      "Wed": 4858,
      "Wind": 4859,
      "Wine": 4860,
      "West": 4861,
      "Washing": 4862,
      "Xin": 4863,
      "Ye": 4864,
      "Zh": 4865,
      "aqu": 4866,
      "agg": 4867,
      "awake": 4868,
      "azz": 4869,
      "average": 4870,
      "ben": 4871,
      "bend": 4872,
      "blast": 4873,
      "bie": 4874,
      "broad": 4875,
      "cm": 4876,
      "cit": 4877,
      "cla": 4878,
      "cart": 4879,
      "creat": 4880,
      "ctable": 4881,
      "cue": 4882,
      "cities": 4883,
      "cashi": 4884,
      "cult": 4885,
      "ccer": 4886,
      "ccin": 4887,
      "dise": 4888,
      "dents": 4889,
      "dated": 4890,
      "eigh": 4891,
      "events": 4892,
      "fs": 4893,
      "fet": 4894,
      "fum": 4895,
      "field": 4896,
      "gown": 4897,
      "gang": 4898,
      "gorge": 4899,
      "hl": 4900,
      "hers": 4901,
      "ige": 4902,
      "ially": 4903,
      "iator": 4904,
      "ivid": 4905,
      "jas": 4906,
      "jun": 4907,
      "jazz": 4908,
      "kers": 4909,
      "kit": 4910,
      "kick": 4911,
      "ler": 4912,
      "loun": 4913,
      "lung": 4914,
      "lane": 4915,
      "lumin": 4916,
      "mal": 4917,
      "mant": 4918,
      "mount": 4919,
      "mote": 4920,
      "nar": 4921,
      "nal": 4922,
      "nas": 4923,
      "nations": 4924,
      "nug": 4925,
      "ol": 4926,
      "pit": 4927,
      "pad": 4928,
      "pent": 4929,
      "pate": 4930,
      "preser": 4931,
      "pinch": 4932,
      "rine": 4933,
      "sor": 4934,
      "sad": 4935,
      "ssi": 4936,
      "scur": 4937,
      "slice": 4938,
      "tin": 4939,
      "twe": 4940,
      "tank": 4941,
      "tum": 4942,
      "troll": 4943,
      "tanger": 4944,
      "ugh": 4945,
      "uck": 4946,
      "umed": 4947,
      "vere": 4948,
      "vir": 4949,
      "vic": 4950,
      "virt": 4951,
      "vious": 4952,
      "vides": 4953,
      "vatives": 4954,
      "wit": 4955,
      "woo": 4956,
      "ware": 4957,
      "wins": 4958,
      "whit": 4959,
      "yer": 4960,
      "yfish": 4961,
      "zzy": 4962,
      "zodi": 4963,
      "onion": 4964,
      "onment": 4965,
      "tho": 4966,
      "thus": 4967,
      "thunder": 4968,
      "thumb": 4969,
      "inc": 4970,
      "iners": 4971,
      "inum": 4972,
      "inven": 4973,
      "inqui": 4974,
      "inless": 4975,
      "invoice": 4976,
      "insured": 4977,
      "incorpor": 4978,
      "anies": 4979,
      "reve": 4980,
      "rese": 4981,
      "redo": 4982,
      "requ": 4983,
      "refresh": 4984,
      "relieve": 4985,
      "retire": 4986,
      "removes": 4987,
      "remit": 4988,
      "remote": 4989,
      "atmo": 4990,
      "attic": 4991,
      "theme": 4992,
      "towe": 4993,
      "toys": 4994,
      "lla": 4995,
      "lled": 4996,
      "ison": 4997,
      "ission": 4998,
      "meta": 4999,
      "mester": 5000,
      "orate": 5001,
      "essen": 5002,
      "espres": 5003,
      "vent": 5004,
      "vels": 5005,
      "seed": 5006,
      "sents": 5007,
      "semester": 5008,
      "leases": 5009,
      "stit": 5010,
      "sting": 5011,
      "hairst": 5012,
      "arin": 5013,
      "heated": 5014,
      "oooo": 5015,
      "ande": 5016,
      "forgive": 5017,
      "formed": 5018,
      "fortune": 5019,
      "chi": 5020,
      "ching": 5021,
      "chine": 5022,
      "chie": 5023,
      "chips": 5024,
      "ening": 5025,
      "ened": 5026,
      "enous": 5027,
      "encount": 5028,
      "entire": 5029,
      "envir": 5030,
      "behave": 5031,
      "beating": 5032,
      "becue": 5033,
      "beige": 5034,
      "dos": 5035,
      "alright": 5036,
      "alities": 5037,
      "altern": 5038,
      "alwood": 5039,
      "altit": 5040,
      "sore": 5041,
      "sole": 5042,
      "soph": 5043,
      "soline": 5044,
      "soever": 5045,
      "sodium": 5046,
      "soccer": 5047,
      "utin": 5048,
      "areas": 5049,
      "ria": 5050,
      "rier": 5051,
      "rior": 5052,
      "rike": 5053,
      "rible": 5054,
      "wiring": 5055,
      "ceil": 5056,
      "ceiling": 5057,
      "web": 5058,
      "wears": 5059,
      "asant": 5060,
      "assure": 5061,
      "assed": 5062,
      "assured": 5063,
      "otect": 5064,
      "tacks": 5065,
      "tably": 5066,
      "coin": 5067,
      "colog": 5068,
      "cann": 5069,
      "cannot": 5070,
      "canic": 5071,
      "cancell": 5072,
      "cancel": 5073,
      "irable": 5074,
      "irteen": 5075,
      "ada": 5076,
      "ading": 5077,
      "neg": 5078,
      "Think": 5079,
      "Though": 5080,
      "pleasant": 5081,
      "tims": 5082,
      "tify": 5083,
      "abroad": 5084,
      "Weigh": 5085,
      "idly": 5086,
      "shut": 5087,
      "shine": 5088,
      "ships": 5089,
      "shining": 5090,
      "ased": 5091,
      "cking": 5092,
      "gosh": 5093,
      "gossi": 5094,
      "sometime": 5095,
      "somewhat": 5096,
      "Theater": 5097,
      "nowadays": 5098,
      "teria": 5099,
      "terminal": 5100,
      "terol": 5101,
      "terrine": 5102,
      "sul": 5103,
      "sus": 5104,
      "mural": 5105,
      "moder": 5106,
      "withdraw": 5107,
      "bush": 5108,
      "bugs": 5109,
      "race": 5110,
      "raise": 5111,
      "ralia": 5112,
      "pleased": 5113,
      "ankle": 5114,
      "anklet": 5115,
      "willing": 5116,
      "Nobody": 5117,
      "ourselves": 5118,
      "pectable": 5119,
      "loin": 5120,
      "lover": 5121,
      "lored": 5122,
      "loans": 5123,
      "loses": 5124,
      "rights": 5125,
      "ified": 5126,
      "notes": 5127,
      "notic": 5128,
      "ural": 5129,
      "indig": 5130,
      "individ": 5131,
      "sips": 5132,
      "defe": 5133,
      "demon": 5134,
      "debit": 5135,
      "depres": 5136,
      "daylight": 5137,
      "eagu": 5138,
      "mag": 5139,
      "male": 5140,
      "maid": 5141,
      "master": 5142,
      "fection": 5143,
      "seemed": 5144,
      "exit": 5145,
      "exfo": 5146,
      "expres": 5147,
      "entered": 5148,
      "labe": 5149,
      "laid": 5150,
      "laces": 5151,
      "laugh": 5152,
      "ically": 5153,
      "iculous": 5154,
      "icraft": 5155,
      "Canada": 5156,
      "apart": 5157,
      "appar": 5158,
      "appla": 5159,
      "appare": 5160,
      "whatsoever": 5161,
      "upper": 5162,
      "quali": 5163,
      "qualities": 5164,
      "sages": 5165,
      "sagent": 5166,
      "sauc": 5167,
      "ions": 5168,
      "estate": 5169,
      "estee": 5170,
      "iliners": 5171,
      "elashes": 5172,
      "provides": 5173,
      "unning": 5174,
      "unfit": 5175,
      "unfurnished": 5176,
      "unlucky": 5177,
      "bake": 5178,
      "needle": 5179,
      "helmet": 5180,
      "ctise": 5181,
      "commu": 5182,
      "commut": 5183,
      "ively": 5184,
      "arten": 5185,
      "sirloin": 5186,
      "poker": 5187,
      "mental": 5188,
      "buyer": 5189,
      "stor": 5190,
      "chem": 5191,
      "cheng": 5192,
      "carp": 5193,
      "umbre": 5194,
      "respect": 5195,
      "resident": 5196,
      "respectable": 5197,
      "condi": 5198,
      "convers": 5199,
      "favour": 5200,
      "Andrew": 5201,
      "pale": 5202,
      "pasta": 5203,
      "pages": 5204,
      "pawns": 5205,
      "dies": 5206,
      "diving": 5207,
      "dimes": 5208,
      "dizzy": 5209,
      "plus": 5210,
      "plumber": 5211,
      "plumb": 5212,
      "themselves": 5213,
      "perature": 5214,
      "wore": 5215,
      "tening": 5216,
      "tender": 5217,
      "essment": 5218,
      "backward": 5219,
      "romat": 5220,
      "gasoline": 5221,
      "bolis": 5222,
      "bodies": 5223,
      "gotta": 5224,
      "gotten": 5225,
      "overboard": 5226,
      "overpriced": 5227,
      "Choose": 5228,
      "spect": 5229,
      "calend": 5230,
      "otherwise": 5231,
      "newsagent": 5232,
      "prevent": 5233,
      "presents": 5234,
      "harmony": 5235,
      "tablets": 5236,
      "liter": 5237,
      "litter": 5238,
      "option": 5239,
      "opport": 5240,
      "options": 5241,
      "Soda": 5242,
      "courses": 5243,
      "Couldn": 5244,
      "accusto": 5245,
      "hasn": 5246,
      "fold": 5247,
      "ards": 5248,
      "tration": 5249,
      "trade": 5250,
      "Helen": 5251,
      "orted": 5252,
      "ended": 5253,
      "endship": 5254,
      "guards": 5255,
      "workman": 5256,
      "clothing": 5257,
      "closer": 5258,
      "Annie": 5259,
      "Analog": 5260,
      "lesterol": 5261,
      "isted": 5262,
      "shade": 5263,
      "shapes": 5264,
      "waited": 5265,
      "greater": 5266,
      "greatest": 5267,
      "angry": 5268,
      "skill": 5269,
      "skip": 5270,
      "stopping": 5271,
      "pardon": 5272,
      "checking": 5273,
      "meaning": 5274,
      "spir": 5275,
      "sphere": 5276,
      "spite": 5277,
      "spring": 5278,
      "weekdays": 5279,
      "Ready": 5280,
      "nerves": 5281,
      "specialities": 5282,
      "ideal": 5283,
      "Anytime": 5284,
      "ancee": 5285,
      "turns": 5286,
      "styte": 5287,
      "internet": 5288,
      "friendship": 5289,
      "cardboard": 5290,
      "delicat": 5291,
      "named": 5292,
      "names": 5293,
      "dresses": 5294,
      "dinners": 5295,
      "tech": 5296,
      "homemade": 5297,
      "smission": 5298,
      "mustard": 5299,
      "situation": 5300,
      "Motor": 5301,
      "duck": 5302,
      "grounds": 5303,
      "Stay": 5304,
      "Strike": 5305,
      "petrol": 5306,
      "toner": 5307,
      "handker": 5308,
      "handicraft": 5309,
      "assessment": 5310,
      "assorted": 5311,
      "corded": 5312,
      "stainless": 5313,
      "married": 5314,
      "Instead": 5315,
      "fastened": 5316,
      "TVs": 5317,
      "rental": 5318,
      "desi": 5319,
      "desirable": 5320,
      "trifles": 5321,
      "mates": 5322,
      "mative": 5323,
      "older": 5324,
      "lighters": 5325,
      "ieve": 5326,
      "cholesterol": 5327,
      "missed": 5328,
      "oneself": 5329,
      "mailing": 5330,
      "mailbox": 5331,
      "teapot": 5332,
      "cleaner": 5333,
      "everance": 5334,
      "disk": 5335,
      "discover": 5336,
      "displayed": 5337,
      "region": 5338,
      "regret": 5339,
      "Beef": 5340,
      "hardly": 5341,
      "earth": 5342,
      "earned": 5343,
      "porting": 5344,
      "actual": 5345,
      "cursed": 5346,
      "receipts": 5347,
      "Forget": 5348,
      "mike": 5349,
      "freck": 5350,
      "french": 5351,
      "protect": 5352,
      "sooner": 5353,
      "evenings": 5354,
      "mp3": 5355,
      "mpic": 5356,
      "waterproof": 5357,
      "fourth": 5358,
      "subtit": 5359,
      "crashed": 5360,
      "personally": 5361,
      "worrying": 5362,
      "stations": 5363,
      "stationary": 5364,
      "lication": 5365,
      "dahl": 5366,
      "calcul": 5367,
      "calories": 5368,
      "Almost": 5369,
      "opening": 5370,
      "bara": 5371,
      "barbecue": 5372,
      "rapidly": 5373,
      "milkshake": 5374,
      "151": 5375,
      "cellphone": 5376,
      "surv": 5377,
      "breaks": 5378,
      "breakable": 5379,
      "fiancee": 5380,
      "puffy": 5381,
      "puccin": 5382,
      "includes": 5383,
      "heading": 5384,
      "Main": 5385,
      "Machine": 5386,
      "baggage": 5387,
      "eggplant": 5388,
      "trained": 5389,
      "sticky": 5390,
      "companies": 5391,
      "portion": 5392,
      "burnt": 5393,
      "picking": 5394,
      "warming": 5395,
      "warrior": 5396,
      "limbs": 5397,
      "limited": 5398,
      "superb": 5399,
      "flowery": 5400,
      "itched": 5401,
      "Shut": 5402,
      "Shrimp": 5403,
      "racquet": 5404,
      "Ours": 5405,
      "bling": 5406,
      "blank": 5407,
      "blown": 5408,
      "promote": 5409,
      "promotes": 5410,
      "signs": 5411,
      "Getting": 5412,
      "purcha": 5413,
      "purpose": 5414,
      "purposes": 5415,
      "brands": 5416,
      "counsel": 5417,
      "grams": 5418,
      "pond": 5419,
      "content": 5420,
      "discounts": 5421,
      "obese": 5422,
      "observe": 5423,
      "holds": 5424,
      "mainland": 5425,
      "Americano": 5426,
      "fattening": 5427,
      "jewel": 5428,
      "treasure": 5429,
      "enjoyment": 5430,
      "begins": 5431,
      "bathrooms": 5432,
      "bathtub": 5433,
      "importance": 5434,
      "gile": 5435,
      "values": 5436,
      "25177": 5437,
      "references": 5438,
      "leaking": 5439,
      "leaving": 5440,
      "leaves": 5441,
      "colleagu": 5442,
      "Seeing": 5443,
      "ladder": 5444,
      "plane": 5445,
      "braised": 5446,
      "visa": 5447,
      "guaranteed": 5448,
      "classified": 5449,
      "138": 5450,
      "keyboard": 5451,
      "addition": 5452,
      "roundabout": 5453,
      "stockings": 5454,
      "words": 5455,
      "suggested": 5456,
      "fashionable": 5457,
      "408": 5458,
      "Judy": 5459,
      "cherries": 5460,
      "measurement": 5461,
      "comfortably": 5462,
      "spaghetti": 5463,
      "banks": 5464,
      "coats": 5465,
      "worldwide": 5466,
      "bargaining": 5467,
      "gymnas": 5468,
      "moisturizing": 5469,
      "Fried": 5470,
      "Friendship": 5471,
      "Perfect": 5472,
      "Vehic": 5473,
      "facials": 5474,
      "digest": 5475,
      "refundable": 5476,
      "cabbage": 5477,
      "drag": 5478,
      "frame": 5479,
      "fragile": 5480,
      "Monkey": 5481,
      "desks": 5482,
      "desktop": 5483,
      "achieve": 5484,
      "ilian": 5485,
      "browse": 5486,
      "speeding": 5487,
      "ectual": 5488,
      "grave": 5489,
      "grape": 5490,
      "operate": 5491,
      "risk": 5492,
      "shipment": 5493,
      "figured": 5494,
      "figures": 5495,
      "dreaming": 5496,
      "sunroof": 5497,
      "sunrise": 5498,
      "application": 5499,
      "appears": 5500,
      "quarrel": 5501,
      "Haven": 5502,
      "battle": 5503,
      "According": 5504,
      "naturally": 5505,
      "completion": 5506,
      "Airmail": 5507,
      "cashew": 5508,
      "killing": 5509,
      "instant": 5510,
      "extent": 5511,
      "cheeseburger": 5512,
      "hurts": 5513,
      "USA": 5514,
      "capable": 5515,
      "capital": 5516,
      "cappuccin": 5517,
      "emotion": 5518,
      "snakes": 5519,
      "sorts": 5520,
      "soldiers": 5521,
      "confusing": 5522,
      "studies": 5523,
      "studied": 5524,
      "studios": 5525,
      "nutritional": 5526,
      "drawing": 5527,
      "Market": 5528,
      "normally": 5529,
      "dropped": 5530,
      "source": 5531,
      "dialing": 5532,
      "functions": 5533,
      "Suit": 5534,
      "Suzhou": 5535,
      "damaged": 5536,
      "grapes": 5537,
      "weaving": 5538,
      "facing": 5539,
      "perfumes": 5540,
      "batteries": 5541,
      "equipped": 5542,
      "equipments": 5543,
      "Guiliners": 5544,
      "Honestly": 5545,
      "increases": 5546,
      "attaching": 5547,
      "belly": 5548,
      "stopwatches": 5549,
      "pullover": 5550,
      "cultured": 5551,
      "cameras": 5552,
      "Dean": 5553,
      "Lucy": 5554,
      "overspent": 5555,
      "lifting": 5556,
      "necessities": 5557,
      "laundromat": 5558,
      "platinum": 5559,
      "practices": 5560,
      "practicing": 5561,
      "Barbie": 5562,
      "Barbara": 5563,
      "flash": 5564,
      "perseverance": 5565,
      "intended": 5566,
      "membership": 5567,
      "Chilin": 5568,
      "crying": 5569,
      "sandalwood": 5570,
      "touched": 5571,
      "ridiculous": 5572,
      "vacuumed": 5573,
      "originally": 5574,
      "Mountains": 5575,
      "destro": 5576,
      "fryer": 5577,
      "frying": 5578,
      "prawn": 5579,
      "practise": 5580,
      "wedding": 5581,
      "advertised": 5582,
      "expecting": 5583,
      "laws": 5584,
      "markers": 5585,
      "volcanic": 5586,
      "cabinets": 5587,
      "Correct": 5588,
      "honest": 5589,
      "squir": 5590,
      "murdered": 5591,
      "examination": 5592,
      "transmission": 5593,
      "temperature": 5594,
      "protective": 5595,
      "compliment": 5596,
      "powerful": 5597,
      "Depot": 5598,
      "EEE": 5599,
      "Indian": 5600,
      "Nanjing": 5601,
      "North": 5602,
      "Spill": 5603,
      "Spread": 5604,
      "beside": 5605,
      "equal": 5606,
      "horrible": 5607,
      "imagine": 5608,
      "chilli": 5609,
      "chilly": 5610,
      "adults": 5611,
      "identity": 5612,
      "majority": 5613,
      "queen": 5614,
      "harmful": 5615,
      "introduction": 5616,
      "describes": 5617,
      "subscribe": 5618,
      "surfing": 5619,
      "elevators": 5620,
      "appearances": 5621,
      "installation": 5622,
      "switching": 5623,
      "Elm": 5624,
      "Fifty": 5625,
      "Peters": 5626,
      "cinema": 5627,
      "dusty": 5628,
      "spoil": 5629,
      "invited": 5630,
      "relatively": 5631,
      "isticated": 5632,
      "commercials": 5633,
      "directly": 5634,
      "craftsman": 5635,
      "846": 5636,
      "Hangzhou": 5637,
      "Martini": 5638,
      "Steve": 5639,
      "Stefan": 5640,
      "lustre": 5641,
      "teahouse": 5642,
      "teahouses": 5643,
      "invite": 5644,
      "lemons": 5645,
      "leftover": 5646,
      "leftovers": 5647,
      "solid": 5648,
      "solidif": 5649,
      "mineral": 5650,
      "minerals": 5651,
      "households": 5652,
      "groups": 5653,
      "supply": 5654,
      "supplies": 5655,
      "sleeves": 5656,
      "responsibilities": 5657,
      "responsibility": 5658,
      "embroidered": 5659,
      "embroidery": 5660,
      "lasagne": 5661,
      "lasagna": 5662,
      "exceptionally": 5663,
      "aerobic": 5664,
      "aerobics": 5665,
      "dictionary": 5666,
      "dictionaries": 5667,
      "Automatic": 5668,
      "Edna": 5669,
      "fuses": 5670,
      "slices": 5671,
      "informative": 5672,
      "argument": 5673,
      "association": 5674,
      "diplo": 5675,
      "surprise": 5676,
      "burglar": 5677,
      "borrowed": 5678,
      "11998": 5679,
      "Buy": 5680,
      "Brazilian": 5681,
      "MSG": 5682,
      "Straight": 5683,
      "Sleeping": 5684,
      "Tinge": 5685,
      "Women": 5686,
      "eyelashes": 5687,
      "elder": 5688,
      "jellyfish": 5689,
      "knife": 5690,
      "nesday": 5691,
      "palace": 5692,
      "puppy": 5693,
      "pitchers": 5694,
      "sangria": 5695,
      "whisky": 5696,
      "initially": 5697,
      "inspector": 5698,
      "intellectual": 5699,
      "involved": 5700,
      "rebounded": 5701,
      "organic": 5702,
      "vendor": 5703,
      "length": 5704,
      "kebabs": 5705,
      "alterations": 5706,
      "aluminum": 5707,
      "shouted": 5708,
      "multi": 5709,
      "muscle": 5710,
      "buffet": 5711,
      "defense": 5712,
      "ongshan": 5713,
      "bacteria": 5714,
      "resistant": 5715,
      "ketchup": 5716,
      "skateboard": 5717,
      "Steak": 5718,
      "brocade": 5719,
      "strategy": 5720,
      "distinctive": 5721,
      "Depends": 5722,
      "professionally": 5723,
      "Corollas": 5724,
      "imagined": 5725,
      "graduate": 5726,
      "successful": 5727,
      "emergency": 5728,
      "Paul": 5729,
      "Probably": 5730,
      "Warrior": 5731,
      "twisted": 5732,
      "estimate": 5733,
      "converter": 5734,
      "surgery": 5735,
      "surrounding": 5736,
      "Britney": 5737,
      "Artistic": 5738,
      "transportation": 5739,
      "3rd": 5740,
      "Akimbo": 5741,
      "Australia": 5742,
      "Asian": 5743,
      "Africa": 5744,
      "Adidas": 5745,
      "August": 5746,
      "Bernie": 5747,
      "Basically": 5748,
      "Birthday": 5749,
      "Couple": 5750,
      "Capital": 5751,
      "Diet": 5752,
      "Dynasty": 5753,
      "Dutch": 5754,
      "Drinking": 5755,
      "David": 5756,
      "Diana": 5757,
      "Fruit": 5758,
      "Green": 5759,
      "Girl": 5760,
      "Hilton": 5761,
      "Kodak": 5762,
      "Large": 5763,
      "Music": 5764,
      "Moutan": 5765,
      "Middle": 5766,
      "Magic": 5767,
      "Naomi": 5768,
      "Oriental": 5769,
      "Olympic": 5770,
      "Pizza": 5771,
      "Shenzhen": 5772,
      "Vitamins": 5773,
      "Wednesday": 5774,
      "Washington": 5775,
      "Zhongshan": 5776,
      "claim": 5777,
      "cashier": 5778,
      "cultural": 5779,
      "disease": 5780,
      "eighth": 5781,
      "gorgeous": 5782,
      "herself": 5783,
      "jasmine": 5784,
      "kitty": 5785,
      "lounge": 5786,
      "luminous": 5787,
      "mantel": 5788,
      "narrow": 5789,
      "nuggets": 5790,
      "pitcher": 5791,
      "preservatives": 5792,
      "scurf": 5793,
      "tiny": 5794,
      "tweed": 5795,
      "tangerines": 5796,
      "victims": 5797,
      "virtual": 5798,
      "woolen": 5799,
      "whitening": 5800,
      "zodiac": 5801,
      "resem": 5802,
      "request": 5803,
      "remittee": 5804,
      "atmosphere": 5805,
      "towels": 5806,
      "metabolis": 5807,
      "espresso": 5808,
      "hairstyle": 5809,
      "chiefs": 5810,
      "environment": 5811,
      "altitude": 5812,
      "sophisticated": 5813,
      "ceilings": 5814,
      "cologne": 5815,
      "gossiping": 5816,
      "moderate": 5817,
      "noticing": 5818,
      "indigenous": 5819,
      "depressed": 5820,
      "exfoli": 5821,
      "expression": 5822,
      "laughing": 5823,
      "apparatus": 5824,
      "applause": 5825,
      "apparel": 5826,
      "saucers": 5827,
      "esteem": 5828,
      "commuting": 5829,
      "chengmen": 5830,
      "umbrella": 5831,
      "conversation": 5832,
      "favourite": 5833,
      "plumbing": 5834,
      "opportun": 5835,
      "accustomed": 5836,
      "workmanship": 5837,
      "delicatessen": 5838,
      "handkerchiefs": 5839,
      "subtitles": 5840,
      "racquetball": 5841,
      "purchased": 5842,
      "counselor": 5843,
      "jewelry": 5844,
      "251775": 5845,
      "gymnasium": 5846,
      "Vehicles": 5847,
      "cappuccino": 5848,
      "craftsmanship": 5849,
      "metabolism": 5850,
      "21": 5851,
      "37": 5852,
      "49": 5853,
      "512": 5854,
      "85": 5855,
      "850": 5856,
      "939": 5857,
      "Ay": 5858,
      "Ais": 5859,
      "Bul": 5860,
      "Broo": 5861,
      "CP": 5862,
      "Cc": 5863,
      "City": 5864,
      "Certain": 5865,
      "Clear": 5866,
      "Cross": 5867,
      "Dry": 5868,
      "Dinner": 5869,
      "Eu": 5870,
      "Eat": 5871,
      "Eli": 5872,
      "Fort": 5873,
      "Fast": 5874,
      "Fashi": 5875,
      "Gor": 5876,
      "HP": 5877,
      "Hu": 5878,
      "Jo": 5879,
      "Jan": 5880,
      "Les": 5881,
      "Lily": 5882,
      "Life": 5883,
      "Nah": 5884,
      "Ninety": 5885,
      "Open": 5886,
      "Oper": 5887,
      "Overs": 5888,
      "Ping": 5889,
      "Pork": 5890,
      "Red": 5891,
      "Rose": 5892,
      "Sit": 5893,
      "Sar": 5894,
      "Sta": 5895,
      "Sti": 5896,
      "Sho": 5897,
      "Sell": 5898,
      "Slow": 5899,
      "Scot": 5900,
      "Tit": 5901,
      "Tha": 5902,
      "Tony": 5903,
      "Ven": 5904,
      "Whe": 5905,
      "Xi": 5906,
      "Yo": 5907,
      "Yank": 5908,
      "Yah": 5909,
      "Ze": 5910,
      "ai": 5911,
      "ache": 5912,
      "aves": 5913,
      "bi": 5914,
      "bou": 5915,
      "bis": 5916,
      "bone": 5917,
      "bour": 5918,
      "bent": 5919,
      "barten": 5920,
      "cers": 5921,
      "cket": 5922,
      "clip": 5923,
      "dar": 5924,
      "dding": 5925,
      "diced": 5926,
      "dging": 5927,
      "ev": 5928,
      "econ": 5929,
      "gab": 5930,
      "gross": 5931,
      "ix": 5932,
      "ico": 5933,
      "ives": 5934,
      "jum": 5935,
      "mou": 5936,
      "mbo": 5937,
      "nest": 5938,
      "ninety": 5939,
      "om": 5940,
      "poo": 5941,
      "pti": 5942,
      "pour": 5943,
      "rus": 5944,
      "swear": 5945,
      "tan": 5946,
      "tong": 5947,
      "text": 5948,
      "ufact": 5949,
      "vin": 5950,
      "vity": 5951,
      "vable": 5952,
      "via": 5953,
      "ycho": 5954,
      "ytes": 5955,
      "zed": 5956,
      "erg": 5957,
      "erk": 5958,
      "erry": 5959,
      "erves": 5960,
      "onto": 5961,
      "thri": 5962,
      "thic": 5963,
      "inse": 5964,
      "inexpensive": 5965,
      "youth": 5966,
      "reco": 5967,
      "relie": 5968,
      "recalled": 5969,
      "repti": 5970,
      "tow": 5971,
      "toy": 5972,
      "towards": 5973,
      "llen": 5974,
      "isure": 5975,
      "megab": 5976,
      "orang": 5977,
      "esca": 5978,
      "sec": 5979,
      "search": 5980,
      "lebr": 5981,
      "leisure": 5982,
      "stone": 5983,
      "stif": 5984,
      "kening": 5985,
      "owder": 5986,
      "arao": 5987,
      "hem": 5988,
      "height": 5989,
      "oom": 5990,
      "ander": 5991,
      "hates": 5992,
      "lid": 5993,
      "chose": 5994,
      "channe": 5995,
      "chanic": 5996,
      "chanting": 5997,
      "chowder": 5998,
      "enlar": 5999,
      "ename": 6000,
      "ette": 6001,
      "beth": 6002,
      "beans": 6003,
      "albu": 6004,
      "ceived": 6005,
      "celebr": 6006,
      "robe": 6007,
      "antity": 6008,
      "Theat": 6009,
      "amin": 6010,
      "lyric": 6011,
      "musc": 6012,
      "rag": 6013,
      "pei": 6014,
      "peach": 6015,
      "loaf": 6016,
      "loaves": 6017,
      "hiking": 6018,
      "simulat": 6019,
      "dev": 6020,
      "depri": 6021,
      "fellow": 6022,
      "extension": 6023,
      "lawn": 6024,
      "upset": 6025,
      "quantity": 6026,
      "ultra": 6027,
      "sacri": 6028,
      "sagging": 6029,
      "iland": 6030,
      "unleaded": 6031,
      "unbelie": 6032,
      "bald": 6033,
      "bagu": 6034,
      "bagg": 6035,
      "cts": 6036,
      "complain": 6037,
      "cheated": 6038,
      "nored": 6039,
      "contain": 6040,
      "faction": 6041,
      "pact": 6042,
      "paunch": 6043,
      "backpack": 6044,
      "offic": 6045,
      "tleneck": 6046,
      "brus": 6047,
      "branch": 6048,
      "minals": 6049,
      "uses": 6050,
      "readers": 6051,
      "pregn": 6052,
      "ignored": 6053,
      "trap": 6054,
      "trave": 6055,
      "oppon": 6056,
      "letting": 6057,
      "puts": 6058,
      "foam": 6059,
      "Head": 6060,
      "couples": 6061,
      "courage": 6062,
      "downstairs": 6063,
      "closing": 6064,
      "cloison": 6065,
      "Ann": 6066,
      "Anna": 6067,
      "angers": 6068,
      "steel": 6069,
      "checkroom": 6070,
      "Real": 6071,
      "rub": 6072,
      "ructor": 6073,
      "rubber": 6074,
      "crew": 6075,
      "dressings": 6076,
      "lasts": 6077,
      "homes": 6078,
      "recommended": 6079,
      "gaining": 6080,
      "handset": 6081,
      "handcrafts": 6082,
      "stache": 6083,
      "manufact": 6084,
      "highly": 6085,
      "starts": 6086,
      "jog": 6087,
      "joking": 6088,
      "deserves": 6089,
      "placed": 6090,
      "interests": 6091,
      "cuis": 6092,
      "disco": 6093,
      "Becky": 6094,
      "curl": 6095,
      "differently": 6096,
      "Forty": 6097,
      "production": 6098,
      "producers": 6099,
      "wonderfully": 6100,
      "personality": 6101,
      "stays": 6102,
      "markets": 6103,
      "ringing": 6104,
      "psycho": 6105,
      "barber": 6106,
      "clas": 6107,
      "clerk": 6108,
      "freshness": 6109,
      "fire": 6110,
      "publ": 6111,
      "pudding": 6112,
      "supper": 6113,
      "cashmere": 6114,
      "headache": 6115,
      "doors": 6116,
      "gnize": 6117,
      "eleven": 6118,
      "portions": 6119,
      "strangers": 6120,
      "superintend": 6121,
      "slept": 6122,
      "object": 6123,
      "cheapest": 6124,
      "Enjoy": 6125,
      "wardrobe": 6126,
      "chocolates": 6127,
      "256": 6128,
      "ladies": 6129,
      "arrived": 6130,
      "balls": 6131,
      "brave": 6132,
      "challen": 6133,
      "vision": 6134,
      "thousands": 6135,
      "restroom": 6136,
      "pots": 6137,
      "prescri": 6138,
      "4026": 6139,
      "45939": 6140,
      "United": 6141,
      "symbo": 6142,
      "vitamin": 6143,
      "noticeable": 6144,
      "dependable": 6145,
      "machines": 6146,
      "fixing": 6147,
      "spaces": 6148,
      "whenever": 6149,
      "allowance": 6150,
      "tests": 6151,
      "metro": 6152,
      "agreeable": 6153,
      "blocked": 6154,
      "songs": 6155,
      "lipsticks": 6156,
      "Kevin": 6157,
      "declar": 6158,
      "rising": 6159,
      "Taipei": 6160,
      "Haha": 6161,
      "irrit": 6162,
      "shelter": 6163,
      "criminals": 6164,
      "instructor": 6165,
      "2477": 6166,
      "Centrum": 6167,
      "naps": 6168,
      "snail": 6169,
      "zabeth": 6170,
      "seriously": 6171,
      "television": 6172,
      "News": 6173,
      "Times": 6174,
      "passport": 6175,
      "tradition": 6176,
      "birds": 6177,
      "relaxed": 6178,
      "Fox": 6179,
      "damn": 6180,
      "scarves": 6181,
      "deadline": 6182,
      "stepped": 6183,
      "storybooks": 6184,
      "scenic": 6185,
      "scenery": 6186,
      "overseas": 6187,
      "select": 6188,
      "dete": 6189,
      "persist": 6190,
      "decorating": 6191,
      "fancy": 6192,
      "shock": 6193,
      "sighted": 6194,
      "Mmmm": 6195,
      "Boys": 6196,
      "General": 6197,
      "honor": 6198,
      "piggy": 6199,
      "squid": 6200,
      "artificial": 6201,
      "toothbrushes": 6202,
      "continu": 6203,
      "Nancy": 6204,
      "empha": 6205,
      "louder": 6206,
      "queue": 6207,
      "satisfaction": 6208,
      "Japanese": 6209,
      "Daily": 6210,
      "cinemas": 6211,
      "phies": 6212,
      "spoon": 6213,
      "relatives": 6214,
      "wildlife": 6215,
      "shorten": 6216,
      "loaded": 6217,
      "connect": 6218,
      "specta": 6219,
      "crabs": 6220,
      "Martin": 6221,
      "flyer": 6222,
      "samples": 6223,
      "properly": 6224,
      "newspapers": 6225,
      "sleeve": 6226,
      "Audi": 6227,
      "Charge": 6228,
      "Icecream": 6229,
      "bridge": 6230,
      "fuss": 6231,
      "turtleneck": 6232,
      "informed": 6233,
      "grandmother": 6234,
      "surprised": 6235,
      "stinks": 6236,
      "approved": 6237,
      "residence": 6238,
      "pantyhose": 6239,
      "Backstreet": 6240,
      "Digest": 6241,
      "Golden": 6242,
      "Jeff": 6243,
      "Jinyuan": 6244,
      "MP4": 6245,
      "Matai": 6246,
      "Mexico": 6247,
      "Potat": 6248,
      "Singing": 6249,
      "Wilson": 6250,
      "athy": 6251,
      "clarity": 6252,
      "ratings": 6253,
      "fortnight": 6254,
      "education": 6255,
      "sucker": 6256,
      "cheeks": 6257,
      "concerned": 6258,
      "Healthy": 6259,
      "register": 6260,
      "Needless": 6261,
      "quarrelling": 6262,
      "hospitality": 6263,
      "philosophies": 6264,
      "announced": 6265,
      "Books": 6266,
      "inquired": 6267,
      "spirits": 6268,
      "4945939": 6269,
      "Ayden": 6270,
      "Aisle": 6271,
      "Bulk": 6272,
      "Brooke": 6273,
      "Ccds": 6274,
      "Certainty": 6275,
      "Europe": 6276,
      "Elizabeth": 6277,
      "Fortunately": 6278,
      "Fashion": 6279,
      "Gordon": 6280,
      "Leslie": 6281,
      "Operator": 6282,
      "Overseas": 6283,
      "Sarah": 6284,
      "Stick": 6285,
      "Sellers": 6286,
      "Titanic": 6287,
      "Thailand": 6288,
      "Whenever": 6289,
      "Yanking": 6290,
      "Yahoo": 6291,
      "Zeal": 6292,
      "bouquet": 6293,
      "bartender": 6294,
      "econo": 6295,
      "moustache": 6296,
      "tongue": 6297,
      "textbooks": 6298,
      "thrift": 6299,
      "thickening": 6300,
      "insects": 6301,
      "recognize": 6302,
      "relief": 6303,
      "reptiles": 6304,
      "megabytes": 6305,
      "oranges": 6306,
      "leisured": 6307,
      "araoke": 6308,
      "channels": 6309,
      "enlarged": 6310,
      "album": 6311,
      "lyrics": 6312,
      "depriving": 6313,
      "unbelievable": 6314,
      "baguette": 6315,
      "contains": 6316,
      "paunchy": 6317,
      "branches": 6318,
      "pregnant": 6319,
      "cloisonn": 6320,
      "manufactur": 6321,
      "psycholog": 6322,
      "superintendent": 6323,
      "symboli": 6324,
      "01": 6325,
      "04": 6326,
      "06": 6327,
      "0K": 6328,
      "010": 6329,
      "075": 6330,
      "130": 6331,
      "115": 6332,
      "1200": 6333,
      "112": 6334,
      "180": 6335,
      "2A": 6336,
      "210": 6337,
      "212": 6338,
      "225": 6339,
      "240": 6340,
      "245": 6341,
      "216": 6342,
      "2119": 6343,
      "31": 6344,
      "3B": 6345,
      "3D": 6346,
      "330": 6347,
      "323": 6348,
      "366": 6349,
      "344": 6350,
      "46": 6351,
      "48": 6352,
      "4B": 6353,
      "420": 6354,
      "432": 6355,
      "53": 6356,
      "55": 6357,
      "5o": 6358,
      "565": 6359,
      "541": 6360,
      "69": 6361,
      "600": 6362,
      "677": 6363,
      "623": 6364,
      "617": 6365,
      "72": 6366,
      "78": 6367,
      "7B": 6368,
      "750": 6369,
      "83": 6370,
      "8V": 6371,
      "820": 6372,
      "825": 6373,
      "840": 6374,
      "880": 6375,
      "96": 6376,
      "998": 6377,
      "9345": 6378,
      "9344": 6379,
      "::": 6380,
      "AB": 6381,
      "AD": 6382,
      "AY": 6383,
      "Ave": 6384,
      "Ama": 6385,
      "Abo": 6386,
      "Again": 6387,
      "Arid": 6388,
      "Ba": 6389,
      "Bs": 6390,
      "Ban": 6391,
      "Bre": 6392,
      "Bright": 6393,
      "Bel": 6394,
      "Bart": 6395,
      "Blu": 6396,
      "Bru": 6397,
      "Bass": 6398,
      "Brad": 6399,
      "Bolo": 6400,
      "Bush": 6401,
      "Bamboo": 6402,
      "Bake": 6403,
      "CN": 6404,
      "CR": 6405,
      "CT": 6406,
      "Cl": 6407,
      "Cy": 6408,
      "Cal": 6409,
      "Cut": 6410,
      "Call": 6411,
      "Cot": 6412,
      "Cry": 6413,
      "Clo": 6414,
      "Creat": 6415,
      "Cig": 6416,
      "Clu": 6417,
      "Cru": 6418,
      "Coun": 6419,
      "Chair": 6420,
      "Credit": 6421,
      "Cali": 6422,
      "Cris": 6423,
      "Chic": 6424,
      "Cds": 6425,
      "Curry": 6426,
      "Cran": 6427,
      "C408": 6428,
      "DH": 6429,
      "Dant": 6430,
      "Dup": 6431,
      "Dion": 6432,
      "Dong": 6433,
      "Dark": 6434,
      "Dior": 6435,
      "Draft": 6436,
      "DRAM": 6437,
      "Duck": 6438,
      "D408": 6439,
      "EM": 6440,
      "ER": 6441,
      "EV": 6442,
      "Em": 6443,
      "Ele": 6444,
      "Ear": 6445,
      "Ent": 6446,
      "Ether": 6447,
      "Egg": 6448,
      "FC": 6449,
      "FM": 6450,
      "FT": 6451,
      "Fa": 6452,
      "Fe": 6453,
      "Fl": 6454,
      "Fan": 6455,
      "Fen": 6456,
      "Fly": 6457,
      "Fra": 6458,
      "Flo": 6459,
      "Fish": 6460,
      "Flu": 6461,
      "Fang": 6462,
      "Fever": 6463,
      "Foot": 6464,
      "Fantastic": 6465,
      "France": 6466,
      "GA": 6467,
      "GB": 6468,
      "Gh": 6469,
      "Ger": 6470,
      "Gen": 6471,
      "Gri": 6472,
      "Gas": 6473,
      "Gone": 6474,
      "Gion": 6475,
      "Gover": 6476,
      "Gree": 6477,
      "Gave": 6478,
      "Gang": 6479,
      "Gru": 6480,
      "Greg": 6481,
      "Gray": 6482,
      "Gump": 6483,
      "Garden": 6484,
      "Hm": 6485,
      "Hand": 6486,
      "Hut": 6487,
      "Hall": 6488,
      "Hun": 6489,
      "Hait": 6490,
      "Hard": 6491,
      "House": 6492,
      "Havo": 6493,
      "IN": 6494,
      "Ir": 6495,
      "Ido": 6496,
      "Iist": 6497,
      "Ivory": 6498,
      "IEEE": 6499,
      "JC": 6500,
      "Jay": 6501,
      "Jet": 6502,
      "Jour": 6503,
      "Jord": 6504,
      "Jade": 6505,
      "Jia": 6506,
      "KC": 6507,
      "KT": 6508,
      "Kong": 6509,
      "Kik": 6510,
      "KIKE": 6511,
      "Kids": 6512,
      "KNT": 6513,
      "Kathy": 6514,
      "Karaoke": 6515,
      "KFC": 6516,
      "Lo": 6517,
      "Ling": 6518,
      "Lid": 6519,
      "Lap": 6520,
      "Lob": 6521,
      "Lisa": 6522,
      "Lower": 6523,
      "Learn": 6524,
      "Lake": 6525,
      "Lady": 6526,
      "Limbo": 6527,
      "L8V": 6528,
      "LAY": 6529,
      "MM": 6530,
      "Mer": 6531,
      "Mand": 6532,
      "Mut": 6533,
      "Mun": 6534,
      "Money": 6535,
      "Meas": 6536,
      "Mark": 6537,
      "Made": 6538,
      "Mount": 6539,
      "Mindy": 6540,
      "Moooo": 6541,
      "Mix": 6542,
      "Non": 6543,
      "Net": 6544,
      "Nick": 6545,
      "Natur": 6546,
      "Nike": 6547,
      "Niss": 6548,
      "Norm": 6549,
      "Name": 6550,
      "Nesca": 6551,
      "Oc": 6552,
      "Ou": 6553,
      "Oth": 6554,
      "Ooo": 6555,
      "Ona": 6556,
      "Oak": 6557,
      "Olives": 6558,
      "Oath": 6559,
      "PK": 6560,
      "Pen": 6561,
      "Pare": 6562,
      "Pri": 6563,
      "Pour": 6564,
      "Pur": 6565,
      "Pine": 6566,
      "Part": 6567,
      "Prom": 6568,
      "Pity": 6569,
      "Peas": 6570,
      "Pian": 6571,
      "Prad": 6572,
      "Place": 6573,
      "Photo": 6574,
      "Pages": 6575,
      "Push": 6576,
      "Passed": 6577,
      "President": 6578,
      "PAD": 6579,
      "PIN": 6580,
      "Qi": 6581,
      "Qing": 6582,
      "RW": 6583,
      "Ri": 6584,
      "Ron": 6585,
      "Rha": 6586,
      "Rare": 6587,
      "Rout": 6588,
      "Ram": 6589,
      "Ric": 6590,
      "Rest": 6591,
      "Run": 6592,
      "Rac": 6593,
      "Rise": 6594,
      "Rais": 6595,
      "RPG": 6596,
      "SA": 6597,
      "Sa": 6598,
      "Sy": 6599,
      "Ser": 6600,
      "Sat": 6601,
      "Sha": 6602,
      "Sof": 6603,
      "Sli": 6604,
      "Shave": 6605,
      "Swi": 6606,
      "Swe": 6607,
      "Sple": 6608,
      "Smo": 6609,
      "Sea": 6610,
      "Sil": 6611,
      "Song": 6612,
      "Sun": 6613,
      "Sus": 6614,
      "Sca": 6615,
      "Sna": 6616,
      "Seven": 6617,
      "Send": 6618,
      "Save": 6619,
      "Sting": 6620,
      "Sim": 6621,
      "Sever": 6622,
      "Sav": 6623,
      "Spic": 6624,
      "Sword": 6625,
      "Small": 6626,
      "Scient": 6627,
      "SEE": 6628,
      "Sky": 6629,
      "Swing": 6630,
      "Sake": 6631,
      "Sending": 6632,
      "Songsh": 6633,
      "Shopping": 6634,
      "Swit": 6635,
      "Sporting": 6636,
      "Te": 6637,
      "Tr": 6638,
      "Tw": 6639,
      "Ton": 6640,
      "Tar": 6641,
      "Tof": 6642,
      "Tal": 6643,
      "Tra": 6644,
      "Tea": 6645,
      "Tex": 6646,
      "Tul": 6647,
      "Teah": 6648,
      "Tast": 6649,
      "Tables": 6650,
      "Tequi": 6651,
      "Tina": 6652,
      "Twelve": 6653,
      "Tutin": 6654,
      "TFT": 6655,
      "Uta": 6656,
      "Uti": 6657,
      "Using": 6658,
      "Van": 6659,
      "Vic": 6660,
      "Vill": 6661,
      "VCR": 6662,
      "WY": 6663,
      "Win": 6664,
      "Went": 6665,
      "Wong": 6666,
      "Wise": 6667,
      "Wye": 6668,
      "Wounds": 6669,
      "Winter": 6670,
      "Whis": 6671,
      "Wild": 6672,
      "Word": 6673,
      "Whit": 6674,
      "Work": 6675,
      "Warm": 6676,
      "Wife": 6677,
      "Whew": 6678,
      "Winner": 6679,
      "Xia": 6680,
      "YY": 6681,
      "Yv": 6682,
      "Yet": 6683,
      "Yea": 6684,
      "Yong": 6685,
      "Yard": 6686,
      "Zoo": 6687,
      "Zone": 6688,
      "Zong": 6689,
      "Ziz": 6690,
      "Zhu": 6691,
      "athe": 6692,
      "aes": 6693,
      "awe": 6694,
      "awhile": 6695,
      "alive": 6696,
      "ameter": 6697,
      "avenue": 6698,
      "ailed": 6699,
      "axed": 6700,
      "bing": 6701,
      "bay": 6702,
      "bare": 6703,
      "bway": 6704,
      "bate": 6705,
      "bash": 6706,
      "bbor": 6707,
      "bia": 6708,
      "bbers": 6709,
      "brid": 6710,
      "bbon": 6711,
      "bbling": 6712,
      "coo": 6713,
      "cen": 6714,
      "cro": 6715,
      "cust": 6716,
      "cum": 6717,
      "cous": 6718,
      "cular": 6719,
      "chap": 6720,
      "chaps": 6721,
      "ccas": 6722,
      "cunning": 6723,
      "claws": 6724,
      "cceived": 6725,
      "dare": 6726,
      "dent": 6727,
      "dine": 6728,
      "dun": 6729,
      "dac": 6730,
      "dirt": 6731,
      "drap": 6732,
      "dges": 6733,
      "dney": 6734,
      "dande": 6735,
      "ditched": 6736,
      "eer": 6737,
      "eing": 6738,
      "eard": 6739,
      "elast": 6740,
      "efit": 6741,
      "email": 6742,
      "eval": 6743,
      "eys": 6744,
      "edos": 6745,
      "eased": 6746,
      "fers": 6747,
      "fli": 6748,
      "fal": 6749,
      "fut": 6750,
      "fed": 6751,
      "ffo": 6752,
      "fting": 6753,
      "fought": 6754,
      "fety": 6755,
      "fices": 6756,
      "fading": 6757,
      "gou": 6758,
      "gli": 6759,
      "gut": 6760,
      "gri": 6761,
      "gul": 6762,
      "gun": 6763,
      "groo": 6764,
      "groom": 6765,
      "gig": 6766,
      "gree": 6767,
      "gies": 6768,
      "gating": 6769,
      "gories": 6770,
      "grip": 6771,
      "hes": 6772,
      "hid": 6773,
      "hook": 6774,
      "hust": 6775,
      "hun": 6776,
      "hum": 6777,
      "iy": 6778,
      "iant": 6779,
      "ible": 6780,
      "iang": 6781,
      "iforms": 6782,
      "ivate": 6783,
      "imul": 6784,
      "ihua": 6785,
      "jin": 6786,
      "jis": 6787,
      "jies": 6788,
      "jones": 6789,
      "jung": 6790,
      "jack": 6791,
      "juring": 6792,
      "jiang": 6793,
      "kg": 6794,
      "ks": 6795,
      "kin": 6796,
      "kic": 6797,
      "kirt": 6798,
      "kward": 6799,
      "kiss": 6800,
      "lb": 6801,
      "ln": 6802,
      "lone": 6803,
      "lab": 6804,
      "link": 6805,
      "lorry": 6806,
      "lation": 6807,
      "lons": 6808,
      "lanes": 6809,
      "lanting": 6810,
      "lIist": 6811,
      "ml": 6812,
      "mare": 6813,
      "mot": 6814,
      "mice": 6815,
      "mpl": 6816,
      "mbr": 6817,
      "mig": 6818,
      "monly": 6819,
      "mars": 6820,
      "mouse": 6821,
      "mild": 6822,
      "mitten": 6823,
      "ns": 6824,
      "nin": 6825,
      "nthe": 6826,
      "nay": 6827,
      "nood": 6828,
      "nur": 6829,
      "nment": 6830,
      "nity": 6831,
      "nies": 6832,
      "nated": 6833,
      "nian": 6834,
      "nier": 6835,
      "numb": 6836,
      "oz": 6837,
      "othe": 6838,
      "ole": 6839,
      "ode": 6840,
      "osa": 6841,
      "ocul": 6842,
      "ographic": 6843,
      "obey": 6844,
      "overe": 6845,
      "occas": 6846,
      "pm": 6847,
      "pis": 6848,
      "pli": 6849,
      "pir": 6850,
      "ply": 6851,
      "pun": 6852,
      "pill": 6853,
      "pint": 6854,
      "pins": 6855,
      "punch": 6856,
      "punk": 6857,
      "preserve": 6858,
      "pati": 6859,
      "pump": 6860,
      "pitched": 6861,
      "ron": 6862,
      "rut": 6863,
      "rout": 6864,
      "rab": 6865,
      "ram": 6866,
      "rous": 6867,
      "rated": 6868,
      "rassed": 6869,
      "rcceived": 6870,
      "sin": 6871,
      "san": 6872,
      "soo": 6873,
      "sas": 6874,
      "sne": 6875,
      "sday": 6876,
      "site": 6877,
      "sci": 6878,
      "sno": 6879,
      "sation": 6880,
      "scall": 6881,
      "sist": 6882,
      "scare": 6883,
      "slight": 6884,
      "scho": 6885,
      "soften": 6886,
      "swall": 6887,
      "sword": 6888,
      "saturday": 6889,
      "sapp": 6890,
      "sane": 6891,
      "south": 6892,
      "sketch": 6893,
      "slanting": 6894,
      "tat": 6895,
      "tar": 6896,
      "tone": 6897,
      "tta": 6898,
      "tir": 6899,
      "tant": 6900,
      "twill": 6901,
      "tent": 6902,
      "tun": 6903,
      "tart": 6904,
      "tty": 6905,
      "tard": 6906,
      "tress": 6907,
      "tuce": 6908,
      "tarts": 6909,
      "ud": 6910,
      "ury": 6911,
      "ulo": 6912,
      "ument": 6913,
      "ugu": 6914,
      "uary": 6915,
      "uals": 6916,
      "uished": 6917,
      "ubby": 6918,
      "ully": 6919,
      "vest": 6920,
      "vish": 6921,
      "vard": 6922,
      "vary": 6923,
      "vital": 6924,
      "vali": 6925,
      "vial": 6926,
      "vior": 6927,
      "vina": 6928,
      "votes": 6929,
      "ww": 6930,
      "wis": 6931,
      "wound": 6932,
      "wking": 6933,
      "whar": 6934,
      "wling": 6935,
      "wines": 6936,
      "wages": 6937,
      "x6": 6938,
      "xen": 6939,
      "xury": 6940,
      "yot": 6941,
      "yed": 6942,
      "ysus": 6943,
      "zi": 6944,
      "zers": 6945,
      "zone": 6946,
      "zation": 6947,
      "zither": 6948,
      "zip": 6949,
      "zhu": 6950,
      "ero": 6951,
      "eral": 6952,
      "eras": 6953,
      "erous": 6954,
      "erable": 6955,
      "erbl": 6956,
      "erating": 6957,
      "erings": 6958,
      "erased": 6959,
      "eroom": 6960,
      "onne": 6961,
      "onates": 6962,
      "onounce": 6963,
      "Personally": 6964,
      "tha": 6965,
      "thong": 6966,
      "thread": 6967,
      "thium": 6968,
      "thouses": 6969,
      "thony": 6970,
      "threw": 6971,
      "thirteen": 6972,
      "oud": 6973,
      "oupe": 6974,
      "ounts": 6975,
      "inan": 6976,
      "inco": 6977,
      "insu": 6978,
      "intake": 6979,
      "inea": 6980,
      "inic": 6981,
      "inct": 6982,
      "incom": 6983,
      "incar": 6984,
      "insure": 6985,
      "info": 6986,
      "inte": 6987,
      "inves": 6988,
      "incl": 6989,
      "inating": 6990,
      "intact": 6991,
      "insult": 6992,
      "insight": 6993,
      "infinite": 6994,
      "influ": 6995,
      "injuring": 6996,
      "anno": 6997,
      "anket": 6998,
      "anberry": 6999,
      "antom": 7000,
      "anized": 7001,
      "antha": 7002,
      "yout": 7003,
      "rec": 7004,
      "reun": 7005,
      "reven": 7006,
      "repay": 7007,
      "reput": 7008,
      "release": 7009,
      "refu": 7010,
      "refer": 7011,
      "reality": 7012,
      "rels": 7013,
      "reward": 7014,
      "retired": 7015,
      "remov": 7016,
      "represent": 7017,
      "recycle": 7018,
      "revi": 7019,
      "removing": 7020,
      "redecorate": 7021,
      "retreated": 7022,
      "represents": 7023,
      "recorded": 7024,
      "reincar": 7025,
      "atic": 7026,
      "ative": 7027,
      "atable": 7028,
      "atched": 7029,
      "atics": 7030,
      "thest": 7031,
      "themes": 7032,
      "thetics": 7033,
      "toe": 7034,
      "tock": 7035,
      "tober": 7036,
      "tocr": 7037,
      "toward": 7038,
      "towel": 7039,
      "towing": 7040,
      "toler": 7041,
      "llies": 7042,
      "llering": 7043,
      "lliant": 7044,
      "llerbl": 7045,
      "iter": 7046,
      "ites": 7047,
      "itar": 7048,
      "itation": 7049,
      "itial": 7050,
      "itao": 7051,
      "itude": 7052,
      "ises": 7053,
      "istry": 7054,
      "island": 7055,
      "ispens": 7056,
      "istration": 7057,
      "iskirt": 7058,
      "isode": 7059,
      "istocr": 7060,
      "meas": 7061,
      "memo": 7062,
      "mestic": 7063,
      "meek": 7064,
      "metho": 7065,
      "mechanic": 7066,
      "melons": 7067,
      "orant": 7068,
      "ority": 7069,
      "orable": 7070,
      "essed": 7071,
      "escal": 7072,
      "esome": 7073,
      "ingly": 7074,
      "inguished": 7075,
      "vey": 7076,
      "veal": 7077,
      "vegging": 7078,
      "seam": 7079,
      "sely": 7080,
      "sening": 7081,
      "semi": 7082,
      "sels": 7083,
      "severe": 7084,
      "leaf": 7085,
      "leby": 7086,
      "leak": 7087,
      "lence": 7088,
      "ston": 7089,
      "sters": 7090,
      "stle": 7091,
      "stere": 7092,
      "stall": 7093,
      "stab": 7094,
      "stur": 7095,
      "stup": 7096,
      "stars": 7097,
      "stress": 7098,
      "stery": 7099,
      "stcr": 7100,
      "states": 7101,
      "stitch": 7102,
      "stances": 7103,
      "status": 7104,
      "stunning": 7105,
      "stimul": 7106,
      "hal": 7107,
      "haver": 7108,
      "hack": 7109,
      "haust": 7110,
      "hable": 7111,
      "hagg": 7112,
      "hammer": 7113,
      "hazy": 7114,
      "hairsty": 7115,
      "havior": 7116,
      "arate": 7117,
      "aristocr": 7118,
      "arsely": 7119,
      "heap": 7120,
      "erect": 7121,
      "oomm": 7122,
      "hatch": 7123,
      "hated": 7124,
      "lict": 7125,
      "liven": 7126,
      "lions": 7127,
      "lids": 7128,
      "licies": 7129,
      "lidos": 7130,
      "lithium": 7131,
      "ayons": 7132,
      "formu": 7133,
      "forger": 7134,
      "forgiven": 7135,
      "forced": 7136,
      "fortify": 7137,
      "fornian": 7138,
      "chure": 7139,
      "chun": 7140,
      "chick": 7141,
      "christmas": 7142,
      "chande": 7143,
      "chwarrior": 7144,
      "chubby": 7145,
      "ens": 7146,
      "ensi": 7147,
      "encou": 7148,
      "enlarge": 7149,
      "enables": 7150,
      "encounter": 7151,
      "enroll": 7152,
      "engage": 7153,
      "endear": 7154,
      "enem": 7155,
      "ential": 7156,
      "envi": 7157,
      "enrage": 7158,
      "entify": 7159,
      "enliven": 7160,
      "etie": 7161,
      "ldren": 7162,
      "ldiers": 7163,
      "belong": 7164,
      "beard": 7165,
      "became": 7166,
      "beverage": 7167,
      "behavior": 7168,
      "dom": 7169,
      "dose": 7170,
      "dock": 7171,
      "doms": 7172,
      "domestic": 7173,
      "aly": 7174,
      "alous": 7175,
      "soy": 7176,
      "solo": 7177,
      "sombr": 7178,
      "uta": 7179,
      "utter": 7180,
      "utif": 7181,
      "ution": 7182,
      "utious": 7183,
      "utensi": 7184,
      "rio": 7185,
      "rious": 7186,
      "riman": 7187,
      "rival": 7188,
      "ribs": 7189,
      "rific": 7190,
      "ricted": 7191,
      "rified": 7192,
      "ribbon": 7193,
      "wives": 7194,
      "wimp": 7195,
      "wiped": 7196,
      "wiki": 7197,
      "ceed": 7198,
      "weak": 7199,
      "allel": 7200,
      "allerg": 7201,
      "asion": 7202,
      "aspo": 7203,
      "asingly": 7204,
      "Italy": 7205,
      "tame": 7206,
      "taught": 7207,
      "coli": 7208,
      "coca": 7209,
      "coins": 7210,
      "colored": 7211,
      "coaxed": 7212,
      "cans": 7213,
      "canes": 7214,
      "cantal": 7215,
      "vertic": 7216,
      "iry": 7217,
      "irmed": 7218,
      "outing": 7219,
      "outgoing": 7220,
      "outnumber": 7221,
      "outrage": 7222,
      "outdated": 7223,
      "adjust": 7224,
      "adize": 7225,
      "admission": 7226,
      "admit": 7227,
      "adorable": 7228,
      "ndle": 7229,
      "ndid": 7230,
      "neal": 7231,
      "nels": 7232,
      "Thur": 7233,
      "Thirteen": 7234,
      "pleated": 7235,
      "tier": 7236,
      "tian": 7237,
      "tile": 7238,
      "tike": 7239,
      "tidy": 7240,
      "tivation": 7241,
      "tiptop": 7242,
      "tificial": 7243,
      "tigating": 7244,
      "abby": 7245,
      "absur": 7246,
      "absor": 7247,
      "aborate": 7248,
      "role": 7249,
      "roars": 7250,
      "rops": 7251,
      "rols": 7252,
      "rodents": 7253,
      "robbers": 7254,
      "Webster": 7255,
      "ider": 7256,
      "idle": 7257,
      "ided": 7258,
      "idable": 7259,
      "idance": 7260,
      "idates": 7261,
      "identify": 7262,
      "shit": 7263,
      "shes": 7264,
      "shown": 7265,
      "shift": 7266,
      "shines": 7267,
      "ooding": 7268,
      "Young": 7269,
      "rye": 7270,
      "goal": 7271,
      "goble": 7272,
      "golf": 7273,
      "somebrushes": 7274,
      "Thev": 7275,
      "However": 7276,
      "inkles": 7277,
      "terior": 7278,
      "amp": 7279,
      "amate": 7280,
      "amusing": 7281,
      "amounts": 7282,
      "suite": 7283,
      "supre": 7284,
      "sulf": 7285,
      "sumed": 7286,
      "subur": 7287,
      "sucks": 7288,
      "suffo": 7289,
      "lying": 7290,
      "mune": 7291,
      "muff": 7292,
      "mult": 7293,
      "munch": 7294,
      "herence": 7295,
      "modes": 7296,
      "movers": 7297,
      "mocha": 7298,
      "geting": 7299,
      "bug": 7300,
      "bump": 7301,
      "bummer": 7302,
      "bustle": 7303,
      "bundle": 7304,
      "raw": 7305,
      "rape": 7306,
      "ract": 7307,
      "rakes": 7308,
      "raged": 7309,
      "ravio": 7310,
      "anytime": 7311,
      "ntal": 7312,
      "nteer": 7313,
      "ankcase": 7314,
      "willed": 7315,
      "wanting": 7316,
      "Nope": 7317,
      "thinks": 7318,
      "peas": 7319,
      "pears": 7320,
      "peek": 7321,
      "Docu": 7322,
      "Dogs": 7323,
      "lox": 7324,
      "lode": 7325,
      "loving": 7326,
      "lovers": 7327,
      "loreal": 7328,
      "logy": 7329,
      "loyer": 7330,
      "lodging": 7331,
      "geon": 7332,
      "gears": 7333,
      "ify": 7334,
      "ifed": 7335,
      "ifying": 7336,
      "donnay": 7337,
      "takeout": 7338,
      "hibit": 7339,
      "hilar": 7340,
      "hips": 7341,
      "notation": 7342,
      "urged": 7343,
      "urbing": 7344,
      "indust": 7345,
      "index": 7346,
      "indist": 7347,
      "indispens": 7348,
      "sius": 7349,
      "sicle": 7350,
      "sibl": 7351,
      "silex": 7352,
      "simpl": 7353,
      "del": 7354,
      "deaf": 7355,
      "delit": 7356,
      "decre": 7357,
      "decent": 7358,
      "depic": 7359,
      "depart": 7360,
      "deals": 7361,
      "depress": 7362,
      "deod": 7363,
      "demand": 7364,
      "debate": 7365,
      "degree": 7366,
      "daytime": 7367,
      "butions": 7368,
      "maze": 7369,
      "maps": 7370,
      "macha": 7371,
      "maker": 7372,
      "makers": 7373,
      "mastery": 7374,
      "fell": 7375,
      "fees": 7376,
      "feed": 7377,
      "feline": 7378,
      "female": 7379,
      "thermost": 7380,
      "exten": 7381,
      "expi": 7382,
      "exact": 7383,
      "exclu": 7384,
      "exchanged": 7385,
      "exagg": 7386,
      "exhaust": 7387,
      "exterior": 7388,
      "exhibit": 7389,
      "ently": 7390,
      "entree": 7391,
      "lap": 7392,
      "lavator": 7393,
      "lavish": 7394,
      "layout": 7395,
      "timetable": 7396,
      "timeters": 7397,
      "inee": 7398,
      "icity": 7399,
      "icip": 7400,
      "icial": 7401,
      "icama": 7402,
      "icted": 7403,
      "icient": 7404,
      "apt": 7405,
      "upon": 7406,
      "upward": 7407,
      "uphill": 7408,
      "upbeat": 7409,
      "useless": 7410,
      "quid": 7411,
      "quise": 7412,
      "query": 7413,
      "quently": 7414,
      "justice": 7415,
      "justify": 7416,
      "ulation": 7417,
      "ulate": 7418,
      "ulsive": 7419,
      "ulties": 7420,
      "sack": 7421,
      "sakes": 7422,
      "safer": 7423,
      "saves": 7424,
      "sailing": 7425,
      "safety": 7426,
      "hobia": 7427,
      "hollering": 7428,
      "hoarsely": 7429,
      "ilband": 7430,
      "eling": 7431,
      "elbow": 7432,
      "elaborate": 7433,
      "proving": 7434,
      "proces": 7435,
      "promis": 7436,
      "provo": 7437,
      "provid": 7438,
      "propose": 7439,
      "proced": 7440,
      "proposed": 7441,
      "prostit": 7442,
      "proclaim": 7443,
      "unlike": 7444,
      "unable": 7445,
      "unhealthy": 7446,
      "univers": 7447,
      "unwanted": 7448,
      "unbear": 7449,
      "unplug": 7450,
      "unlimited": 7451,
      "bathe": 7452,
      "backed": 7453,
      "bawling": 7454,
      "needn": 7455,
      "needed": 7456,
      "helor": 7457,
      "oundness": 7458,
      "cture": 7459,
      "compl": 7460,
      "combo": 7461,
      "comments": 7462,
      "compromise": 7463,
      "comfy": 7464,
      "comics": 7465,
      "comparing": 7466,
      "command": 7467,
      "commonly": 7468,
      "artist": 7469,
      "artistry": 7470,
      "washable": 7471,
      "illed": 7472,
      "affa": 7473,
      "affection": 7474,
      "poke": 7475,
      "polo": 7476,
      "polis": 7477,
      "poached": 7478,
      "policies": 7479,
      "itecture": 7480,
      "stored": 7481,
      "stolen": 7482,
      "stomacha": 7483,
      "cian": 7484,
      "cipl": 7485,
      "cius": 7486,
      "cialize": 7487,
      "helper": 7488,
      "chew": 7489,
      "chetta": 7490,
      "carat": 7491,
      "caring": 7492,
      "cardi": 7493,
      "carried": 7494,
      "carnations": 7495,
      "ellite": 7496,
      "ums": 7497,
      "umbling": 7498,
      "umns": 7499,
      "ressee": 7500,
      "ressive": 7501,
      "reschedule": 7502,
      "resonates": 7503,
      "shoulder": 7504,
      "novels": 7505,
      "nology": 7506,
      "penser": 7507,
      "penthouses": 7508,
      "roomy": 7509,
      "vention": 7510,
      "venerable": 7511,
      "concre": 7512,
      "concent": 7513,
      "contri": 7514,
      "constri": 7515,
      "connotation": 7516,
      "factor": 7517,
      "fauc": 7518,
      "faulty": 7519,
      "pain": 7520,
      "pager": 7521,
      "paign": 7522,
      "packet": 7523,
      "padoms": 7524,
      "roommates": 7525,
      "worship": 7526,
      "worries": 7527,
      "died": 7528,
      "dible": 7529,
      "diges": 7530,
      "dibs": 7531,
      "diameter": 7532,
      "ateful": 7533,
      "byword": 7534,
      "plank": 7535,
      "plates": 7536,
      "plums": 7537,
      "perate": 7538,
      "perman": 7539,
      "pertension": 7540,
      "performed": 7541,
      "perfection": 7542,
      "ously": 7543,
      "wok": 7544,
      "woke": 7545,
      "tens": 7546,
      "tenants": 7547,
      "essors": 7548,
      "Mayors": 7549,
      "reddish": 7550,
      "hypertension": 7551,
      "backside": 7552,
      "backgrounds": 7553,
      "gag": 7554,
      "gages": 7555,
      "gawking": 7556,
      "however": 7557,
      "offers": 7558,
      "boa": 7559,
      "boil": 7560,
      "bored": 7561,
      "bogg": 7562,
      "boys": 7563,
      "boiling": 7564,
      "Wouldn": 7565,
      "overall": 7566,
      "overlooking": 7567,
      "overchar": 7568,
      "overcharge": 7569,
      "overflow": 7570,
      "overcoat": 7571,
      "overcooked": 7572,
      "overpass": 7573,
      "overcast": 7574,
      "overdue": 7575,
      "overturned": 7576,
      "overheated": 7577,
      "Chou": 7578,
      "Chang": 7579,
      "berty": 7580,
      "berately": 7581,
      "tyre": 7582,
      "brat": 7583,
      "brook": 7584,
      "brum": 7585,
      "brations": 7586,
      "specul": 7587,
      "species": 7588,
      "specialize": 7589,
      "episode": 7590,
      "minor": 7591,
      "minim": 7592,
      "minced": 7593,
      "miniskirt": 7594,
      "user": 7595,
      "uspic": 7596,
      "cavi": 7597,
      "cautious": 7598,
      "mortal": 7599,
      "reads": 7600,
      "readiness": 7601,
      "frizz": 7602,
      "ishing": 7603,
      "payoff": 7604,
      "paychecks": 7605,
      "prey": 7606,
      "prepost": 7607,
      "presen": 7608,
      "preach": 7609,
      "prevents": 7610,
      "previous": 7611,
      "presumed": 7612,
      "igue": 7613,
      "igrap": 7614,
      "igence": 7615,
      "igret": 7616,
      "igorate": 7617,
      "thentic": 7618,
      "calligrap": 7619,
      "harder": 7620,
      "tablecloths": 7621,
      "kindly": 7622,
      "Therefore": 7623,
      "litun": 7624,
      "lities": 7625,
      "trace": 7626,
      "trainee": 7627,
      "optic": 7628,
      "opposed": 7629,
      "ophobia": 7630,
      "Social": 7631,
      "Soya": 7632,
      "Soldiers": 7633,
      "lets": 7634,
      "lettuce": 7635,
      "pio": 7636,
      "pired": 7637,
      "pierc": 7638,
      "pimple": 7639,
      "pipes": 7640,
      "Goods": 7641,
      "Goodness": 7642,
      "acity": 7643,
      "accu": 7644,
      "accur": 7645,
      "acute": 7646,
      "access": 7647,
      "actions": 7648,
      "accorded": 7649,
      "accompl": 7650,
      "monster": 7651,
      "monkeys": 7652,
      "monks": 7653,
      "monument": 7654,
      "nament": 7655,
      "nastic": 7656,
      "naught": 7657,
      "columns": 7658,
      "foie": 7659,
      "focus": 7660,
      "tray": 7661,
      "trout": 7662,
      "trashed": 7663,
      "Heming": 7664,
      "courier": 7665,
      "wellknown": 7666,
      "downs": 7667,
      "downward": 7668,
      "ends": 7669,
      "endure": 7670,
      "endang": 7671,
      "gue": 7672,
      "gullies": 7673,
      "guitar": 7674,
      "guessed": 7675,
      "abled": 7676,
      "everybody": 7677,
      "afterwards": 7678,
      "Ally": 7679,
      "taining": 7680,
      "tained": 7681,
      "drinker": 7682,
      "changeable": 7683,
      "kettle": 7684,
      "worker": 7685,
      "closet": 7686,
      "closets": 7687,
      "Anim": 7688,
      "Anthony": 7689,
      "Extension": 7690,
      "Expir": 7691,
      "lessening": 7692,
      "dolls": 7693,
      "nicely": 7694,
      "shell": 7695,
      "sheep": 7696,
      "shelled": 7697,
      "asts": 7698,
      "astrop": 7699,
      "lunteer": 7700,
      "xture": 7701,
      "istance": 7702,
      "serole": 7703,
      "shame": 7704,
      "shaver": 7705,
      "shared": 7706,
      "shaken": 7707,
      "shallow": 7708,
      "wondered": 7709,
      "players": 7710,
      "playground": 7711,
      "playgrounds": 7712,
      "stewing": 7713,
      "sky": 7714,
      "skis": 7715,
      "skater": 7716,
      "parallel": 7717,
      "himi": 7718,
      "forearm": 7719,
      "meantime": 7720,
      "meanwhile": 7721,
      "spread": 7722,
      "spital": 7723,
      "spices": 7724,
      "springs": 7725,
      "spilled": 7726,
      "weekly": 7727,
      "weekday": 7728,
      "impress": 7729,
      "impose": 7730,
      "implants": 7731,
      "impol": 7732,
      "impact": 7733,
      "immig": 7734,
      "imply": 7735,
      "immune": 7736,
      "improving": 7737,
      "imperfection": 7738,
      "immortal": 7739,
      "rows": 7740,
      "rowing": 7741,
      "Remy": 7742,
      "Reads": 7743,
      "mayonna": 7744,
      "writer": 7745,
      "glories": 7746,
      "glutin": 7747,
      "speciality": 7748,
      "housecleaning": 7749,
      "Anyone": 7750,
      "stylist": 7751,
      "stylus": 7752,
      "interpret": 7753,
      "interface": 7754,
      "bitter": 7755,
      "phant": 7756,
      "phur": 7757,
      "phantom": 7758,
      "keepsake": 7759,
      "keepsakes": 7760,
      "kesong": 7761,
      "friendly": 7762,
      "rule": 7763,
      "ruby": 7764,
      "ruins": 7765,
      "ruined": 7766,
      "credible": 7767,
      "centre": 7768,
      "deliberately": 7769,
      "mornings": 7770,
      "ffering": 7771,
      "diners": 7772,
      "tear": 7773,
      "temp": 7774,
      "temple": 7775,
      "teaspo": 7776,
      "mendously": 7777,
      "differ": 7778,
      "furious": 7779,
      "fucius": 7780,
      "merits": 7781,
      "mercials": 7782,
      "homeless": 7783,
      "homeland": 7784,
      "costly": 7785,
      "feelings": 7786,
      "hadn": 7787,
      "recommendations": 7788,
      "sitcom": 7789,
      "akers": 7790,
      "akfast": 7791,
      "Moon": 7792,
      "dual": 7793,
      "dude": 7794,
      "singers": 7795,
      "sington": 7796,
      "asks": 7797,
      "drips": 7798,
      "drifting": 7799,
      "gray": 7800,
      "gras": 7801,
      "grant": 7802,
      "grance": 7803,
      "grated": 7804,
      "grade": 7805,
      "grades": 7806,
      "grumbling": 7807,
      "grateful": 7808,
      "whom": 7809,
      "Stand": 7810,
      "petent": 7811,
      "petrified": 7812,
      "tons": 7813,
      "fewer": 7814,
      "handsome": 7815,
      "handmade": 7816,
      "handiness": 7817,
      "handworks": 7818,
      "handwashed": 7819,
      "handsets": 7820,
      "cork": 7821,
      "careless": 7822,
      "staple": 7823,
      "bestsell": 7824,
      "bestseller": 7825,
      "stills": 7826,
      "mango": 7827,
      "mangoes": 7828,
      "manners": 7829,
      "manik": 7830,
      "managed": 7831,
      "highlighter": 7832,
      "highlighters": 7833,
      "chart": 7834,
      "charity": 7835,
      "margin": 7836,
      "marquise": 7837,
      "stubbor": 7838,
      "startling": 7839,
      "joke": 7840,
      "jokes": 7841,
      "messing": 7842,
      "messes": 7843,
      "messages": 7844,
      "Into": 7845,
      "Initial": 7846,
      "Incredible": 7847,
      "fastest": 7848,
      "hottest": 7849,
      "inted": 7850,
      "rentals": 7851,
      "despatch": 7852,
      "trial": 7853,
      "trimming": 7854,
      "trivial": 7855,
      "cating": 7856,
      "catsup": 7857,
      "catalo": 7858,
      "catalog": 7859,
      "catastrop": 7860,
      "mato": 7861,
      "mats": 7862,
      "matted": 7863,
      "matters": 7864,
      "mattress": 7865,
      "oldies": 7866,
      "lighting": 7867,
      "cooker": 7868,
      "cookie": 7869,
      "chores": 7870,
      "misread": 7871,
      "misdialed": 7872,
      "pendant": 7873,
      "brewed": 7874,
      "brewing": 7875,
      "smallest": 7876,
      "hissing": 7877,
      "inspired": 7878,
      "loved": 7879,
      "mailmen": 7880,
      "Looking": 7881,
      "dying": 7882,
      "ilding": 7883,
      "teacup": 7884,
      "cleaners": 7885,
      "tors": 7886,
      "torch": 7887,
      "formality": 7888,
      "formidable": 7889,
      "weightless": 7890,
      "suited": 7891,
      "suitcas": 7892,
      "Toyot": 7893,
      "Toasts": 7894,
      "Tomato": 7895,
      "cuit": 7896,
      "cuits": 7897,
      "cuff": 7898,
      "curio": 7899,
      "lated": 7900,
      "latter": 7901,
      "dison": 7902,
      "dislike": 7903,
      "discomfor": 7904,
      "disgra": 7905,
      "disadvantages": 7906,
      "disappear": 7907,
      "discus": 7908,
      "discovered": 7909,
      "discipl": 7910,
      "dispenser": 7911,
      "disabled": 7912,
      "Cola": 7913,
      "Coca": 7914,
      "Comp": 7915,
      "Corel": 7916,
      "nights": 7917,
      "nightmare": 7918,
      "regulations": 7919,
      "regulate": 7920,
      "healthful": 7921,
      "Beer": 7922,
      "Before": 7923,
      "Behind": 7924,
      "mmm": 7925,
      "harden": 7926,
      "hardcover": 7927,
      "hardware": 7928,
      "hardships": 7929,
      "shoppinglIist": 7930,
      "fined": 7931,
      "finals": 7932,
      "ports": 7933,
      "porters": 7934,
      "receiver": 7935,
      "receiving": 7936,
      "receives": 7937,
      "freezer": 7938,
      "freezers": 7939,
      "acting": 7940,
      "actress": 7941,
      "curly": 7942,
      "curls": 7943,
      "walks": 7944,
      "popsicle": 7945,
      "population": 7946,
      "poppadoms": 7947,
      "103": 7948,
      "105": 7949,
      "106": 7950,
      "10th": 7951,
      "Talent": 7952,
      "Tailband": 7953,
      "booking": 7954,
      "20s": 7955,
      "Forth": 7956,
      "Forgive": 7957,
      "Forrest": 7958,
      "salaries": 7959,
      "versed": 7960,
      "versus": 7961,
      "mix": 7962,
      "mixture": 7963,
      "sweating": 7964,
      "producer": 7965,
      "ilyn": 7966,
      "winds": 7967,
      "windfall": 7968,
      "windscreen": 7969,
      "windshield": 7970,
      "freak": 7971,
      "freestyle": 7972,
      "frequently": 7973,
      "printer": 7974,
      "printing": 7975,
      "pronounce": 7976,
      "proud": 7977,
      "favorites": 7978,
      "mpse": 7979,
      "mption": 7980,
      "watering": 7981,
      "quiz": 7982,
      "quieter": 7983,
      "sideboard": 7984,
      "sideburn": 7985,
      "agent": 7986,
      "agreed": 7987,
      "tops": 7988,
      "subtle": 7989,
      "submit": 7990,
      "substit": 7991,
      "skinni": 7992,
      "skinnier": 7993,
      "crash": 7994,
      "cranberry": 7995,
      "crayons": 7996,
      "crankcase": 7997,
      "guessing": 7998,
      "picked": 7999,
      "posted": 8000,
      "postgraduate": 8001,
      "fficient": 8002,
      "thoughts": 8003,
      "thoughtless": 8004,
      "whiteout": 8005,
      "realm": 8006,
      "realty": 8007,
      "streets": 8008,
      "licit": 8009,
      "creams": 8010,
      "creamy": 8011,
      "ounces": 8012,
      "ouncer": 8013,
      "straw": 8014,
      "bodybuilding": 8015,
      "bodyguards": 8016,
      "dao": 8017,
      "daze": 8018,
      "standstill": 8019,
      "birth": 8020,
      "calm": 8021,
      "Although": 8022,
      "Alcoho": 8023,
      "brochure": 8024,
      "partners": 8025,
      "builder": 8026,
      "chickens": 8027,
      "barrooms": 8028,
      "barrier": 8029,
      "barrassed": 8030,
      "billed": 8031,
      "clones": 8032,
      "clists": 8033,
      "clinic": 8034,
      "clutter": 8035,
      "rapper": 8036,
      "fresher": 8037,
      "freshmen": 8038,
      "1500": 8039,
      "funeral": 8040,
      "lunchtime": 8041,
      "cells": 8042,
      "cellulo": 8043,
      "iously": 8044,
      "Doesn": 8045,
      "gladly": 8046,
      "babies": 8047,
      "survey": 8048,
      "largely": 8049,
      "fires": 8050,
      "fibre": 8051,
      "supporting": 8052,
      "heads": 8053,
      "headline": 8054,
      "headphones": 8055,
      "Making": 8056,
      "pedal": 8057,
      "rence": 8058,
      "welcomed": 8059,
      "bothers": 8060,
      "sensor": 8061,
      "sensation": 8062,
      "misses": 8063,
      "Going": 8064,
      "eficial": 8065,
      "gnese": 8066,
      "sticking": 8067,
      "compati": 8068,
      "compared": 8069,
      "compulsive": 8070,
      "Liberty": 8071,
      "Online": 8072,
      "elements": 8073,
      "elephant": 8074,
      "porter": 8075,
      "portable": 8076,
      "stray": 8077,
      "strates": 8078,
      "convention": 8079,
      "prettier": 8080,
      "Someone": 8081,
      "Somehow": 8082,
      "driveway": 8083,
      "Whoa": 8084,
      "Whom": 8085,
      "Whose": 8086,
      "eternal": 8087,
      "burners": 8088,
      "picky": 8089,
      "pickup": 8090,
      "cupboard": 8091,
      "learner": 8092,
      "livingroom": 8093,
      "buildings": 8094,
      "2000": 8095,
      "2002": 8096,
      "2006": 8097,
      "2007": 8098,
      "auction": 8099,
      "authentic": 8100,
      "warn": 8101,
      "warning": 8102,
      "warmed": 8103,
      "superior": 8104,
      "superbly": 8105,
      "ckson": 8106,
      "Short": 8107,
      "Shooting": 8108,
      "Shouting": 8109,
      "girly": 8110,
      "racter": 8111,
      "Silence": 8112,
      "blind": 8113,
      "blanket": 8114,
      "pyram": 8115,
      "frank": 8116,
      "frances": 8117,
      "franch": 8118,
      "paperback": 8119,
      "signed": 8120,
      "signals": 8121,
      "dealt": 8122,
      "purses": 8123,
      "seventh": 8124,
      "offering": 8125,
      "brandy": 8126,
      "council": 8127,
      "grammar": 8128,
      "grew": 8129,
      "grey": 8130,
      "meats": 8131,
      "severing": 8132,
      "addresses": 8133,
      "shortcut": 8134,
      "controls": 8135,
      "filing": 8136,
      "icans": 8137,
      "obvious": 8138,
      "obtained": 8139,
      "varies": 8140,
      "000yuan": 8141,
      "ignition": 8142,
      "smelled": 8143,
      "kidney": 8144,
      "ontally": 8145,
      "necklaces": 8146,
      "washes": 8147,
      "1008": 8148,
      "10086": 8149,
      "100ml": 8150,
      "advises": 8151,
      "mainly": 8152,
      "maintaining": 8153,
      "boxing": 8154,
      "fats": 8155,
      "fatter": 8156,
      "fatty": 8157,
      "fatigue": 8158,
      "filling": 8159,
      "fillet": 8160,
      "filled": 8161,
      "jeer": 8162,
      "jealous": 8163,
      "tremendously": 8164,
      "enjoying": 8165,
      "began": 8166,
      "gium": 8167,
      "juicy": 8168,
      "judge": 8169,
      "judges": 8170,
      "lipglo": 8171,
      "sions": 8172,
      "understood": 8173,
      "2500": 8174,
      "blues": 8175,
      "izens": 8176,
      "izontally": 8177,
      "landlady": 8178,
      "refuse": 8179,
      "refused": 8180,
      "refusing": 8181,
      "reference": 8182,
      "reasons": 8183,
      "media": 8184,
      "medieval": 8185,
      "collars": 8186,
      "collection": 8187,
      "collided": 8188,
      "conveniently": 8189,
      "Rocky": 8190,
      "Roses": 8191,
      "Rollerbl": 8192,
      "blessed": 8193,
      "swims": 8194,
      "arrives": 8195,
      "rolling": 8196,
      "planned": 8197,
      "stuffing": 8198,
      "borah": 8199,
      "balling": 8200,
      "bravery": 8201,
      "brakes": 8202,
      "brains": 8203,
      "chain": 8204,
      "charact": 8205,
      "character": 8206,
      "visiting": 8207,
      "visited": 8208,
      "visible": 8209,
      "wallpaper": 8210,
      "toasted": 8211,
      "eyelids": 8212,
      "smokers": 8213,
      "restrooms": 8214,
      "restricted": 8215,
      "saucepan": 8216,
      "sweets": 8217,
      "sweetie": 8218,
      "classroom": 8219,
      "132": 8220,
      "potted": 8221,
      "wishing": 8222,
      "addicted": 8223,
      "addressee": 8224,
      "undergone": 8225,
      "underground": 8226,
      "underestimate": 8227,
      "greens": 8228,
      "cultiv": 8229,
      "cultivation": 8230,
      "listing": 8231,
      "sciss": 8232,
      "scrub": 8233,
      "wrapping": 8234,
      "points": 8235,
      "Beijingers": 8236,
      "software": 8237,
      "45623": 8238,
      "45132": 8239,
      "Mega": 8240,
      "Meihua": 8241,
      "Mechwarrior": 8242,
      "Unscrew": 8243,
      "Unfort": 8244,
      "Uniforms": 8245,
      "ctors": 8246,
      "synthe": 8247,
      "volunteer": 8248,
      "dependent": 8249,
      "availability": 8250,
      "Frenchmen": 8251,
      "waking": 8252,
      "wagging": 8253,
      "towns": 8254,
      "terrify": 8255,
      "locals": 8256,
      "programme": 8257,
      "programmes": 8258,
      "clearer": 8259,
      "clearing": 8260,
      "clearance": 8261,
      "exercised": 8262,
      "June": 8263,
      "Julie": 8264,
      "ohui": 8265,
      "silvers": 8266,
      "following": 8267,
      "Streets": 8268,
      "conditions": 8269,
      "conditioners": 8270,
      "conditionining": 8271,
      "alien": 8272,
      "alization": 8273,
      "measured": 8274,
      "measures": 8275,
      "measurements": 8276,
      "halluc": 8277,
      "steady": 8278,
      "blueberry": 8279,
      "mediums": 8280,
      "mountainous": 8281,
      "spacious": 8282,
      "attending": 8283,
      "attended": 8284,
      "attendance": 8285,
      "beginners": 8286,
      "hush": 8287,
      "huyuan": 8288,
      "treatment": 8289,
      "treatments": 8290,
      "forgotten": 8291,
      "worthwhile": 8292,
      "typewriting": 8293,
      "gymnastic": 8294,
      "moisturizes": 8295,
      "Fries": 8296,
      "cyclists": 8297,
      "cooling": 8298,
      "priately": 8299,
      "priority": 8300,
      "meets": 8301,
      "quietness": 8302,
      "views": 8303,
      "viewing": 8304,
      "refunded": 8305,
      "165": 8306,
      "16th": 8307,
      "1600": 8308,
      "1616": 8309,
      "Teller": 8310,
      "cambe": 8311,
      "campaign": 8312,
      "drain": 8313,
      "draft": 8314,
      "duralumin": 8315,
      "frames": 8316,
      "fraction": 8317,
      "fraud": 8318,
      "radiator": 8319,
      "issants": 8320,
      "ladybugs": 8321,
      "accidentally": 8322,
      "30000": 8323,
      "Month": 8324,
      "Mondays": 8325,
      "Monster": 8326,
      "Monica": 8327,
      "drops": 8328,
      "figuring": 8329,
      "matching": 8330,
      "legally": 8331,
      "taxes": 8332,
      "taxation": 8333,
      "difficulties": 8334,
      "electrical": 8335,
      "electrician": 8336,
      "childhood": 8337,
      "decaf": 8338,
      "decade": 8339,
      "decades": 8340,
      "speeds": 8341,
      "appetizing": 8342,
      "Johnny": 8343,
      "Johnson": 8344,
      "80kg": 8345,
      "breads": 8346,
      "crack": 8347,
      "craves": 8348,
      "grains": 8349,
      "gravity": 8350,
      "operates": 8351,
      "risky": 8352,
      "coverage": 8353,
      "shipping": 8354,
      "bunny": 8355,
      "strongly": 8356,
      "221": 8357,
      "228": 8358,
      "22nd": 8359,
      "2210": 8360,
      "2289": 8361,
      "Apartment": 8362,
      "brighter": 8363,
      "climate": 8364,
      "climber": 8365,
      "climbs": 8366,
      "password": 8367,
      "roasted": 8368,
      "sunscreen": 8369,
      "excellently": 8370,
      "appeal": 8371,
      "jobs": 8372,
      "finishes": 8373,
      "filming": 8374,
      "50000": 8375,
      "Hainan": 8376,
      "Shower": 8377,
      "inches": 8378,
      "informal": 8379,
      "hamburgers": 8380,
      "developer": 8381,
      "developing": 8382,
      "develops": 8383,
      "carpeting": 8384,
      "shadows": 8385,
      "Across": 8386,
      "Trying": 8387,
      "basis": 8388,
      "completed": 8389,
      "accounts": 8390,
      "accountant": 8391,
      "Smithfield": 8392,
      "235": 8393,
      "2367": 8394,
      "2368": 8395,
      "2356": 8396,
      "boot": 8397,
      "booted": 8398,
      "boosting": 8399,
      "crime": 8400,
      "casually": 8401,
      "casserole": 8402,
      "distinguished": 8403,
      "disturbing": 8404,
      "flatters": 8405,
      "killer": 8406,
      "tucine": 8407,
      "instance": 8408,
      "instantly": 8409,
      "required": 8410,
      "neighbour": 8411,
      "hurtful": 8412,
      "Supermarket": 8413,
      "249": 8414,
      "Madness": 8415,
      "USB": 8416,
      "USGA": 8417,
      "capture": 8418,
      "capability": 8419,
      "capacity": 8420,
      "embodies": 8421,
      "embarrassed": 8422,
      "generous": 8423,
      "generations": 8424,
      "pancakes": 8425,
      "snacks": 8426,
      "touring": 8427,
      "tourist": 8428,
      "tournament": 8429,
      "heartfelt": 8430,
      "golden": 8431,
      "depth": 8432,
      "confirm": 8433,
      "confident": 8434,
      "conference": 8435,
      "conflict": 8436,
      "confirmed": 8437,
      "transfers": 8438,
      "translated": 8439,
      "handled": 8440,
      "joining": 8441,
      "nutritions": 8442,
      "drawer": 8443,
      "consideration": 8444,
      "considerate": 8445,
      "mirrors": 8446,
      "199": 8447,
      "1989": 8448,
      "1987": 8449,
      "1999": 8450,
      "1920s": 8451,
      "Human": 8452,
      "Humble": 8453,
      "Marilyn": 8454,
      "dumb": 8455,
      "fights": 8456,
      "fighters": 8457,
      "fighting": 8458,
      "rulers": 8459,
      "swiss": 8460,
      "swamp": 8461,
      "lenient": 8462,
      "leaders": 8463,
      "leading": 8464,
      "changes": 8465,
      "tasting": 8466,
      "tastier": 8467,
      "countryside": 8468,
      "publication": 8469,
      "publicity": 8470,
      "neighboring": 8471,
      "6666": 8472,
      "6681": 8473,
      "6631": 8474,
      "66677": 8475,
      "Mikel": 8476,
      "Sears": 8477,
      "Seize": 8478,
      "furry": 8479,
      "furthest": 8480,
      "passion": 8481,
      "passages": 8482,
      "satellite": 8483,
      "scratched": 8484,
      "videos": 8485,
      "attraction": 8486,
      "attracted": 8487,
      "arette": 8488,
      "peppery": 8489,
      "Registration": 8490,
      "directions": 8491,
      "relaxing": 8492,
      "relaxation": 8493,
      "Parking": 8494,
      "Such": 8495,
      "Sugar": 8496,
      "Subway": 8497,
      "Suffering": 8498,
      "cerebrum": 8499,
      "damages": 8500,
      "apology": 8501,
      "apologies": 8502,
      "facet": 8503,
      "fairly": 8504,
      "Likewise": 8505,
      "collects": 8506,
      "collected": 8507,
      "wakening": 8508,
      "practiced": 8509,
      "documentary": 8510,
      "documentaries": 8511,
      "Guess": 8512,
      "Guinea": 8513,
      "Guidance": 8514,
      "Jimmy": 8515,
      "daddy": 8516,
      "fiction": 8517,
      "masks": 8518,
      "nonsense": 8519,
      "noncommer": 8520,
      "network": 8521,
      "nedy": 8522,
      "thinning": 8523,
      "increasingly": 8524,
      "bellies": 8525,
      "cosmetic": 8526,
      "railroad": 8527,
      "scenes": 8528,
      "dumpling": 8529,
      "185": 8530,
      "18cm": 8531,
      "6789": 8532,
      "6748": 8533,
      "Definitely": 8534,
      "Deborah": 8535,
      "Lucky": 8536,
      "Luxury": 8537,
      "Poor": 8538,
      "Positive": 8539,
      "Westerners": 8540,
      "Westernized": 8541,
      "overstock": 8542,
      "selected": 8543,
      "engineers": 8544,
      "sociable": 8545,
      "policeman": 8546,
      "stomachs": 8547,
      "luggages": 8548,
      "teens": 8549,
      "breathes": 8550,
      "profile": 8551,
      "proficient": 8552,
      "profoundness": 8553,
      "professors": 8554,
      "contests": 8555,
      "napkin": 8556,
      "356": 8557,
      "Bargaining": 8558,
      "Barathe": 8559,
      "Chef": 8560,
      "Pretty": 8561,
      "aisles": 8562,
      "bicycling": 8563,
      "circus": 8564,
      "circum": 8565,
      "circuit": 8566,
      "detailed": 8567,
      "flabby": 8568,
      "flooding": 8569,
      "flag": 8570,
      "flavour": 8571,
      "osas": 8572,
      "inauspic": 8573,
      "inique": 8574,
      "intention": 8575,
      "strike": 8576,
      "striping": 8577,
      "strips": 8578,
      "buddy": 8579,
      "decoration": 8580,
      "decorator": 8581,
      "processor": 8582,
      "businesses": 8583,
      "spots": 8584,
      "improvements": 8585,
      "smarty": 8586,
      "studying": 8587,
      "memberships": 8588,
      "moisturized": 8589,
      "Children": 8590,
      "Quick": 8591,
      "foots": 8592,
      "reports": 8593,
      "issued": 8594,
      "memorize": 8595,
      "chanced": 8596,
      "alcoholic": 8597,
      "shovels": 8598,
      "pearl": 8599,
      "sights": 8600,
      "sightly": 8601,
      "sightseeing": 8602,
      "originality": 8603,
      "appreciable": 8604,
      "38th": 8605,
      "38000yuan": 8606,
      "Eighty": 8607,
      "Hero": 8608,
      "aware": 8609,
      "awkward": 8610,
      "awesome": 8611,
      "dancer": 8612,
      "destined": 8613,
      "fleeing": 8614,
      "praise": 8615,
      "prawns": 8616,
      "rays": 8617,
      "scale": 8618,
      "scheduled": 8619,
      "reliability": 8620,
      "strokes": 8621,
      "excels": 8622,
      "expected": 8623,
      "lawyer": 8624,
      "permits": 8625,
      "brushing": 8626,
      "monitors": 8627,
      "elegance": 8628,
      "scrim": 8629,
      "development": 8630,
      "insurancecompany": 8631,
      "exquisitely": 8632,
      "3284": 8633,
      "701": 8634,
      "8972": 8635,
      "Arden": 8636,
      "Arrival": 8637,
      "Artificial": 8638,
      "Between": 8639,
      "Tender": 8640,
      "frogs": 8641,
      "frosting": 8642,
      "honking": 8643,
      "honestly": 8644,
      "linked": 8645,
      "mical": 8646,
      "rums": 8647,
      "squats": 8648,
      "squids": 8649,
      "wanna": 8650,
      "hilly": 8651,
      "examine": 8652,
      "examines": 8653,
      "examples": 8654,
      "hosting": 8655,
      "faultless": 8656,
      "boyfriend": 8657,
      "servants": 8658,
      "tember": 8659,
      "correctly": 8660,
      "proteins": 8661,
      "snacking": 8662,
      "Posters": 8663,
      "176": 8664,
      "9869": 8665,
      "Carmen": 8666,
      "Carpet": 8667,
      "Carnations": 8668,
      "Carpio": 8669,
      "Heaven": 8670,
      "Leo": 8671,
      "Legs": 8672,
      "Leopard": 8673,
      "Leitao": 8674,
      "MasterCard": 8675,
      "Nanchengmen": 8676,
      "Spider": 8677,
      "Special": 8678,
      "Speedos": 8679,
      "blame": 8680,
      "blamed": 8681,
      "candles": 8682,
      "candidates": 8683,
      "categories": 8684,
      "equally": 8685,
      "equals": 8686,
      "equalization": 8687,
      "employer": 8688,
      "firmly": 8689,
      "horn": 8690,
      "horizontally": 8691,
      "nicating": 8692,
      "odd": 8693,
      "odds": 8694,
      "watered": 8695,
      "replacement": 8696,
      "separately": 8697,
      "chilled": 8698,
      "belts": 8699,
      "butterfly": 8700,
      "buttons": 8701,
      "bakeries": 8702,
      "combined": 8703,
      "dividend": 8704,
      "bothering": 8705,
      "typically": 8706,
      "castle": 8707,
      "harmless": 8708,
      "travelers": 8709,
      "opinions": 8710,
      "activity": 8711,
      "nervousness": 8712,
      "Morecambe": 8713,
      "gradually": 8714,
      "subscriber": 8715,
      "subscribers": 8716,
      "subscription": 8717,
      "standards": 8718,
      "warmth": 8719,
      "landlords": 8720,
      "attendant": 8721,
      "attendants": 8722,
      "applied": 8723,
      "appliance": 8724,
      "appearing": 8725,
      "installed": 8726,
      "installments": 8727,
      "satisfied": 8728,
      "scratches": 8729,
      "walkingstick": 8730,
      "Geographic": 8731,
      "Hospital": 8732,
      "Mcintosh": 8733,
      "Mcneal": 8734,
      "Pete": 8735,
      "Peterson": 8736,
      "Samsung": 8737,
      "Samantha": 8738,
      "dusting": 8739,
      "galla": 8740,
      "lamp": 8741,
      "snowman": 8742,
      "snowshoes": 8743,
      "spoons": 8744,
      "slipped": 8745,
      "slippers": 8746,
      "violation": 8747,
      "related": 8748,
      "commerce": 8749,
      "planted": 8750,
      "produced": 8751,
      "crisps": 8752,
      "crispy": 8753,
      "automatically": 8754,
      "valuing": 8755,
      "casualties": 8756,
      "touching": 8757,
      "vacuuming": 8758,
      "husbands": 8759,
      "1177": 8760,
      "14th": 8761,
      "AMD": 8762,
      "Business": 8763,
      "Finish": 8764,
      "Mangoes": 8765,
      "Paying": 8766,
      "Wukesong": 8767,
      "Working": 8768,
      "crucial": 8769,
      "knee": 8770,
      "knock": 8771,
      "luster": 8772,
      "lustrous": 8773,
      "nationwide": 8774,
      "rotten": 8775,
      "sinks": 8776,
      "samosa": 8777,
      "samosas": 8778,
      "sharp": 8779,
      "vibrations": 8780,
      "invasion": 8781,
      "invigorate": 8782,
      "announcer": 8783,
      "renovation": 8784,
      "reaching": 8785,
      "tokens": 8786,
      "lizards": 8787,
      "chestnut": 8788,
      "succeed": 8789,
      "mushroom": 8790,
      "mushrooms": 8791,
      "motorists": 8792,
      "razors": 8793,
      "expander": 8794,
      "expiry": 8795,
      "explode": 8796,
      "explicit": 8797,
      "fails": 8798,
      "accessed": 8799,
      "Exercised": 8800,
      "foreigners": 8801,
      "manicured": 8802,
      "auditions": 8803,
      "kilograms": 8804,
      "screws": 8805,
      "screwdriver": 8806,
      "applying": 8807,
      "tailoring": 8808,
      "nutritionists": 8809,
      "circulator": 8810,
      "shoelaces": 8811,
      "advertisements": 8812,
      "2135367": 8813,
      "6432": 8814,
      "9960": 8815,
      "Ambulance": 8816,
      "Billy": 8817,
      "Cooking": 8818,
      "Charles": 8819,
      "Chardonnay": 8820,
      "Eddie": 8821,
      "Ernest": 8822,
      "Played": 8823,
      "Terry": 8824,
      "Terminal": 8825,
      "Terrific": 8826,
      "VISA": 8827,
      "Watches": 8828,
      "brim": 8829,
      "brilliant": 8830,
      "drunken": 8831,
      "fabric": 8832,
      "fondness": 8833,
      "growth": 8834,
      "pinched": 8835,
      "ranges": 8836,
      "slide": 8837,
      "turkey": 8838,
      "turtles": 8839,
      "wrinkling": 8840,
      "aroles": 8841,
      "argue": 8842,
      "associate": 8843,
      "Christian": 8844,
      "trunks": 8845,
      "grandpa": 8846,
      "grandfather": 8847,
      "Starbucks": 8848,
      "Highway": 8849,
      "Highland": 8850,
      "burglary": 8851,
      "trends": 8852,
      "trendy": 8853,
      "blusher": 8854,
      "balconies": 8855,
      "booths": 8856,
      "truthful": 8857,
      "polishing": 8858,
      "4235": 8859,
      "8825": 8860,
      "88245": 8861,
      "Building": 8862,
      "Brazil": 8863,
      "Fucking": 8864,
      "Fuchengmen": 8865,
      "Fujis": 8866,
      "Half": 8867,
      "Honging": 8868,
      "Hongtao": 8869,
      "Kenmore": 8870,
      "Kensington": 8871,
      "Kennedy": 8872,
      "MS2119": 8873,
      "Strawberry": 8874,
      "Tingling": 8875,
      "flesh": 8876,
      "fluids": 8877,
      "flushes": 8878,
      "jellied": 8879,
      "knifed": 8880,
      "mandarin": 8881,
      "niques": 8882,
      "nibbling": 8883,
      "nessed": 8884,
      "palatable": 8885,
      "puppies": 8886,
      "rusty": 8887,
      "rusting": 8888,
      "whiskey": 8889,
      "initial": 8890,
      "inspect": 8891,
      "intelligence": 8892,
      "involves": 8893,
      "rebounding": 8894,
      "organized": 8895,
      "ornament": 8896,
      "ornaments": 8897,
      "ornamental": 8898,
      "vending": 8899,
      "lengthen": 8900,
      "hello": 8901,
      "forks": 8902,
      "alteration": 8903,
      "tailored": 8904,
      "shouting": 8905,
      "mussels": 8906,
      "peeling": 8907,
      "defending": 8908,
      "buttered": 8909,
      "appropriately": 8910,
      "savoring": 8911,
      "bachelor": 8912,
      "carrots": 8913,
      "residents": 8914,
      "resistance": 8915,
      "consume": 8916,
      "consuming": 8917,
      "consumption": 8918,
      "minivan": 8919,
      "prefers": 8920,
      "preference": 8921,
      "preferences": 8922,
      "pretend": 8923,
      "pretended": 8924,
      "pretends": 8925,
      "steaming": 8926,
      "Steamed": 8927,
      "broccoli": 8928,
      "purchasers": 8929,
      "purchases": 8930,
      "purchasing": 8931,
      "Roasted": 8932,
      "musicals": 8933,
      "distinct": 8934,
      "Depending": 8935,
      "professional": 8936,
      "strictly": 8937,
      "Corolla": 8938,
      "imagination": 8939,
      "graduated": 8940,
      "emergencies": 8941,
      "thoroughly": 8942,
      "independently": 8943,
      "Convention": 8944,
      "Confucius": 8945,
      "Digital": 8946,
      "Jeans": 8947,
      "MP3": 8948,
      "Matter": 8949,
      "Mexicans": 8950,
      "Outlets": 8951,
      "Prince": 8952,
      "Printed": 8953,
      "Pots": 8954,
      "Sanlitun": 8955,
      "Single": 8956,
      "Wooden": 8957,
      "bonnet": 8958,
      "binocul": 8959,
      "clarifying": 8960,
      "gardens": 8961,
      "waved": 8962,
      "zerland": 8963,
      "architecture": 8964,
      "believing": 8965,
      "educational": 8966,
      "suckers": 8967,
      "suffering": 8968,
      "sufferings": 8969,
      "mulated": 8970,
      "cheekbones": 8971,
      "concern": 8972,
      "participants": 8973,
      "participate": 8974,
      "descend": 8975,
      "descended": 8976,
      "registration": 8977,
      "settled": 8978,
      "clams": 8979,
      "1394": 8980,
      "quarreled": 8981,
      "temptation": 8982,
      "philosophy": 8983,
      "announcements": 8984,
      "1106": 8985,
      "278": 8986,
      "230221": 8987,
      "44820": 8988,
      "Admission": 8989,
      "Addison": 8990,
      "Asks": 8991,
      "Beauty": 8992,
      "Beautif": 8993,
      "Celtic": 8994,
      "Celsius": 8995,
      "Country": 8996,
      "DDR": 8997,
      "Frog": 8998,
      "Frozen": 8999,
      "Gain": 9000,
      "Games": 9001,
      "Giant": 9002,
      "Gila": 9003,
      "Harry": 9004,
      "Harvard": 9005,
      "Hamburger": 9006,
      "Hamburgers": 9007,
      "Huanghe": 9008,
      "Huanzhu": 9009,
      "James": 9010,
      "Jackson": 9011,
      "Portland": 9012,
      "Radio": 9013,
      "Radiator": 9014,
      "Spacious": 9015,
      "Spaghetti": 9016,
      "Separate": 9017,
      "September": 9018,
      "Type": 9019,
      "Tangle": 9020,
      "UVA": 9021,
      "UVB": 9022,
      "Wrong": 9023,
      "Write": 9024,
      "Window": 9025,
      "Xinhua": 9026,
      "Xinjiang": 9027,
      "aqua": 9028,
      "aquatics": 9029,
      "aggressive": 9030,
      "benefit": 9031,
      "beneficial": 9032,
      "bends": 9033,
      "broadcast": 9034,
      "citrus": 9035,
      "citizens": 9036,
      "creates": 9037,
      "created": 9038,
      "fetch": 9039,
      "fettucine": 9040,
      "fuming": 9041,
      "fumaroles": 9042,
      "gangs": 9043,
      "junction": 9044,
      "junior": 9045,
      "lungs": 9046,
      "malfunction": 9047,
      "malts": 9048,
      "mounting": 9049,
      "mounted": 9050,
      "padded": 9051,
      "pinches": 9052,
      "sliced": 9053,
      "tummy": 9054,
      "tumble": 9055,
      "trolley": 9056,
      "trolleys": 9057,
      "witnessed": 9058,
      "thundering": 9059,
      "thumbtacks": 9060,
      "incline": 9061,
      "incense": 9062,
      "invention": 9063,
      "inventions": 9064,
      "incorporate": 9065,
      "incorporated": 9066,
      "reveals": 9067,
      "revealing": 9068,
      "refreshes": 9069,
      "refreshments": 9070,
      "retirement": 9071,
      "seeds": 9072,
      "seedy": 9073,
      "encounters": 9074,
      "encountered": 9075,
      "behaved": 9076,
      "alternate": 9077,
      "alternatives": 9078,
      "cancelled": 9079,
      "cancellation": 9080,
      "negatives": 9081,
      "negative": 9082,
      "shiningly": 9083,
      "sultry": 9084,
      "sulphur": 9085,
      "individually": 9086,
      "individuals": 9087,
      "defeat": 9088,
      "defective": 9089,
      "demonstrate": 9090,
      "demonstrates": 9091,
      "magadize": 9092,
      "label": 9093,
      "labeled": 9094,
      "qualify": 9095,
      "qualified": 9096,
      "bakemeat": 9097,
      "needlework": 9098,
      "community": 9099,
      "communicating": 9100,
      "storm": 9101,
      "storeroom": 9102,
      "chemise": 9103,
      "chemist": 9104,
      "condiment": 9105,
      "condiments": 9106,
      "spectator": 9107,
      "spectrum": 9108,
      "calendar": 9109,
      "calendars": 9110,
      "optional": 9111,
      "folding": 9112,
      "skillful": 9113,
      "skillfully": 9114,
      "skipped": 9115,
      "technology": 9116,
      "techniques": 9117,
      "handicrafts": 9118,
      "desire": 9119,
      "desires": 9120,
      "regrets": 9121,
      "freckle": 9122,
      "freckles": 9123,
      "calculate": 9124,
      "calculations": 9125,
      "survive": 9126,
      "survived": 9127,
      "blanks": 9128,
      "colleague": 9129,
      "colleagues": 9130,
      "grapefruits": 9131,
      "emotional": 9132,
      "flashlight": 9133,
      "ridiculously": 9134,
      "destroying": 9135,
      "destroyed": 9136,
      "squirrel": 9137,
      "squirrels": 9138,
      "solidly": 9139,
      "solidify": 9140,
      "solidifying": 9141,
      "Automatics": 9142,
      "diploma": 9143,
      "diplomas": 9144,
      "1199866": 9145,
      "1199886": 9146,
      "elderly": 9147,
      "multiple": 9148,
      "multiplayer": 9149,
      "skateboarding": 9150,
      "Dieting": 9151,
      "Greenwich": 9152,
      "mantelpiece": 9153,
      "resemble": 9154,
      "resembles": 9155,
      "requests": 9156,
      "exfoliation": 9157,
      "exfoliate": 9158,
      "opportunity": 9159,
      "opportunities": 9160,
      "2517758": 9161,
      "2517759": 9162,
      "Joe": 9163,
      "January": 9164,
      "Stadium": 9165,
      "Shoes": 9166,
      "Scotch": 9167,
      "Venice": 9168,
      "Yoghurt": 9169,
      "biscuits": 9170,
      "clippers": 9171,
      "darn": 9172,
      "evil": 9173,
      "jumped": 9174,
      "ommend": 9175,
      "pools": 9176,
      "pours": 9177,
      "secure": 9178,
      "stiff": 9179,
      "chosen": 9180,
      "enamel": 9181,
      "celebration": 9182,
      "Theaters": 9183,
      "muscular": 9184,
      "simulating": 9185,
      "devices": 9186,
      "sacrifices": 9187,
      "baggy": 9188,
      "officials": 9189,
      "bruschetta": 9190,
      "travelling": 9191,
      "opponents": 9192,
      "Realtors": 9193,
      "cuisines": 9194,
      "classic": 9195,
      "publishing": 9196,
      "puddings": 9197,
      "256MB": 9198,
      "challenged": 9199,
      "prescription": 9200,
      "metropolis": 9201,
      "declarations": 9202,
      "irritated": 9203,
      "snails": 9204,
      "detectors": 9205,
      "shockproof": 9206,
      "piggyback": 9207,
      "continuous": 9208,
      "emphasize": 9209,
      "spectacular": 9210,
      "Audiences": 9211,
      "Potatoes": 9212,
      "Zealand": 9213,
      "economical": 9214,
      "manufacturers": 9215,
      "psychologist": 9216,
      "symbolizes": 9217,
      "06230221": 9218,
      "1127": 9219,
      "3668": 9220,
      "4B7": 9221,
      "9981": 9222,
      "ABC": 9223,
      "Amazing": 9224,
      "Abode": 9225,
      "Bacardi": 9226,
      "Banana": 9227,
      "Breakfast": 9228,
      "Belgium": 9229,
      "Barton": 9230,
      "Blue": 9231,
      "Bruce": 9232,
      "Bolognese": 9233,
      "CTWY": 9234,
      "Clinique": 9235,
      "Cycling": 9236,
      "Calm": 9237,
      "Crys": 9238,
      "Clothing": 9239,
      "Creates": 9240,
      "Cigarette": 9241,
      "Club": 9242,
      "Cruise": 9243,
      "Counter": 9244,
      "Chairman": 9245,
      "Californian": 9246,
      "Crispy": 9247,
      "Chicken": 9248,
      "Cranberry": 9249,
      "DHL": 9250,
      "Dante": 9251,
      "Duppa": 9252,
      "Dionysus": 9253,
      "Dongpo": 9254,
      "EMT": 9255,
      "EVA": 9256,
      "Eleven": 9257,
      "Early": 9258,
      "Entrusting": 9259,
      "Ethernet": 9260,
      "Faulty": 9261,
      "Feb": 9262,
      "Flash": 9263,
      "Flymo": 9264,
      "Fragrance": 9265,
      "Florence": 9266,
      "Fluffy": 9267,
      "Fangpian": 9268,
      "Ghz": 9269,
      "German": 9270,
      "Gene": 9271,
      "Grill": 9272,
      "Giono": 9273,
      "Government": 9274,
      "Greek": 9275,
      "Grunt": 9276,
      "Handing": 9277,
      "Hunan": 9278,
      "Haitian": 9279,
      "Households": 9280,
      "Havoc": 9281,
      "Irish": 9282,
      "Idol": 9283,
      "Journal": 9284,
      "Jordan": 9285,
      "Jiajies": 9286,
      "KTCTWY": 9287,
      "Kikicama": 9288,
      "KIKES": 9289,
      "Lock": 9290,
      "Lingual": 9291,
      "Laptops": 9292,
      "Lobster": 9293,
      "Merriman": 9294,
      "Mandarin": 9295,
      "Mutton": 9296,
      "Municip": 9297,
      "Measure": 9298,
      "Moooooomm": 9299,
      "Nonsense": 9300,
      "Netfli": 9301,
      "Nickleby": 9302,
      "Natural": 9303,
      "Nissan": 9304,
      "Normally": 9305,
      "Nescafe": 9306,
      "October": 9307,
      "Ouch": 9308,
      "Others": 9309,
      "Oooo": 9310,
      "Onaway": 9311,
      "Pennies": 9312,
      "Parental": 9313,
      "Prices": 9314,
      "Pouring": 9315,
      "Purple": 9316,
      "Party": 9317,
      "Promise": 9318,
      "Piano": 9319,
      "Prada": 9320,
      "Photograph": 9321,
      "Qingdao": 9322,
      "River": 9323,
      "Rhaki": 9324,
      "Route": 9325,
      "Richard": 9326,
      "Rachel": 9327,
      "Raising": 9328,
      "Sauta": 9329,
      "Sydney": 9330,
      "Seriously": 9331,
      "Satin": 9332,
      "Shame": 9333,
      "Soft": 9334,
      "Slide": 9335,
      "Swimming": 9336,
      "Sweetie": 9337,
      "Splendid": 9338,
      "Smoking": 9339,
      "Silver": 9340,
      "Sunny": 9341,
      "Susan": 9342,
      "Scale": 9343,
      "Snakes": 9344,
      "Simple": 9345,
      "Several": 9346,
      "Savers": 9347,
      "Spicy": 9348,
      "Scientists": 9349,
      "SEEK": 9350,
      "Songshugu": 9351,
      "Switzerland": 9352,
      "Temple": 9353,
      "Trade": 9354,
      "Twinkles": 9355,
      "Tonight": 9356,
      "Tarsus": 9357,
      "Tofu": 9358,
[...]
